/**
  ******************************************************************************
  * @file    network_data_params.c
  * @author  AST Embedded Analytics Research Platform
  * @date    Tue Dec 19 15:44:24 2023
  * @brief   AI Tool Automatic Code Generator for Embedded NN computing
  ******************************************************************************
  * Copyright (c) 2023 STMicroelectronics.
  * All rights reserved.
  *
  * This software is licensed under terms that can be found in the LICENSE file
  * in the root directory of this software component.
  * If no LICENSE file comes with this software, it is provided AS-IS.
  ******************************************************************************
  */

#define AI_INTERNAL_FLASH    __attribute__((section(".InternalFlashSection")))
#include "network_data_params.h"


/**  Activations Section  ****************************************************/
ai_handle g_network_activations_table[1 + 2] = {
  AI_HANDLE_PTR(AI_MAGIC_MARKER),
  AI_HANDLE_PTR(NULL),
  AI_HANDLE_PTR(AI_MAGIC_MARKER),
};




/**  Weights Section  ********************************************************/
AI_ALIGNED(32)
AI_INTERNAL_FLASH
const ai_u64 s_network_weights_array_u64[56100] = {
  0xfb810622000e0431U, 0x8f5f0247dfd14fcU, 0xff03ed170900f7e3U, 0x12fbdafafd00e6fcU,
  0xfaea66f0040cfcfaU, 0x2fcfcf2d707f1c4U, 0xd8b211fa008118fbU, 0xb32070501f3fefbU,
  0xf4e9819a03f5090dU, 0x4f8f05eff2def13U, 0xefbfd15110afbedU, 0x3aff0b0dfd0beef1U,
  0xf6f2ce8108c810f5U, 0x6e7043cd5e632feU, 0xd68c12c6eefd00fdU, 0x63011be308060501U,
  0x160009fe01fd0403U, 0xfa00eafe0103ff81U, 0xfcfcfe01012d01fbU, 0x106f602fdf3e8ffU,
  0x41503fd01b34305U, 0xfdd70248dcf96803U, 0xe8dc2df925fada1eU, 0x84f71781d9040d11U,
  0x2ccce5e72b22c3f7U, 0x2b0ffed2bf62d2fU, 0x52acdf4dedf98a1cU, 0xe0be81d5f30da9e3U,
  0x1511fb140b68810aU, 0xf8370fad0bf39e09U, 0x3110e52ac2fe01f9U, 0x7efdf9704a0fd916U,
  0x170d22ddf3090808U, 0xf8030aebf030fcc6U, 0x1d060dfa1681f9fdU, 0xf61b110a04f91cfaU,
  0xa4f3050dfdfffcfcU, 0x707630912e0f87fU, 0xfe0ef9040588ff03U, 0xcff2f0214534af3U,
  0x50808fa04e61e11U, 0x7cef92bfefef401U, 0xe4e3df8102fad8U, 0xd6ee0b397c05f704U,
  0xcfe000106000005U, 0x20302000907f781U, 0xfa010000032901feU, 0x5fb01040201ee01U,
  0xf40d09350ce91402U, 0x3eff7d206e70ffeU, 0x7f5cfeea02fdf309U, 0xb9340bf0f809fe09U,
  0x0U, 0x0U, 0x0U, 0x0U,
  0xb190607f8458106U, 0xfd2101c5e9fec003U, 0x1d07ff20c2f9eb10U, 0x4b0bf33d1806f20cU,
  0x1e7f05e6dc1503deU, 0x335fffaa3991ffbU, 0xca39eabecff14000U, 0x21ec2f8d5fc121fU,
  0x1100fc01fffbfd01U, 0xfef9040200090281U, 0xf8fa03ff063a03f8U, 0xfc08f2fdfcf9e7fdU,
  0x224c1dc5db07190fU, 0x77bbb5b54fffeaU, 0xff1bf58e05067fe3U, 0xea3a2e13dd072910U,
  0xf5061003f60306f8U, 0xfefa810cfa070107U, 0xf904f5fcf50bf8f8U, 0xa010003f5b50b03U,
  0xd3490fffe5912c97U, 0xed5f40791fa81fdU, 0xe90b7e5032f792d7U, 0x10ef0551a1e1006U,
  0x2a00c9d71111e1fdU, 0x5d02bfe091a0e17U, 0xfe2f634fb20d612U, 0xf3e681daf117d600U,
  0xf9168230d1fcfb08U, 0x51315f61d14e51dU, 0xc629dfed036a3fdaU, 0xfc81f5f7f50a16ffU,
  0x3fffc00ff010107U, 0x3010003040181U, 0xff01fefd010401fcU, 0xfff90101fcf3fb01U,
  0x7726fee30619fefcU, 0xfa0081eadd37fbb5U, 0x13e5ec01c679fdf4U, 0xf1099d1309928c0bU,
  0xcbfeec0df901fcf5U, 0xfc047f0102dcf1b2U, 0x4f8040712ffffffU, 0x7080f0701342f01U,
  0x6022ed1fe1a02bbU, 0xfd05f5f3e3f81705U, 0x1100eff9feeefaeeU, 0xf8000ef4041b057fU,
  0x8ea0ae1e8f6221fU, 0xfa0ec82300fadfe7U, 0xe20e21eb1d090c1aU, 0x220d7f2c18d10d1eU,
  0xe4960930fcf80633U, 0x4e91729740ef3c8U, 0x2fb04121ef8fc2eU, 0x21127f0c1d01021fU,
  0x1326eb183640eadaU, 0xfa2421fcb5c47f05U, 0x24e3e802b9f4fce6U, 0x1cd81cdc322a3bcU,
  0x5ee4244121fcf202U, 0xdfe344d1afe23U, 0xc1432fe70dc7300dU, 0x1d297feb173efbfbU,
  0x201aecf1fc0eef4eU, 0x6fa05fb081ef512U, 0x17f9e00bfb0c0aeaU, 0x1817ee10031ffe7fU,
  0x167ff2d2d835d2baU, 0x790db097afccf2U, 0xe450f8adbad76cb2U, 0x2f16d75117001efaU,
  0xf3fef8fbd3000b09U, 0xa3c7ff314b60a03U, 0xeb00f39eccf147ccU, 0xf4f1acf0e31a27ffU,
  0x1cb91f39e7d83debU, 0x17e7fa565730caf0U, 0x8d7ffe3b24e90fc7U, 0x4b000425ec2605e6U,
  0xfbaefe350ddb213fU, 0xff0701387f3ab9fcU, 0x44bbdfe7010cf890U, 0x23eb1214a2eb0205U,
  0x40f13fff3678dfcU, 0xf84d11c4f2ed8102U, 0x170bdb1cd0f110e3U, 0x5d0cee7f31f2d601U,
  0x4feeffd03fc02fdU, 0x108fdfe00fd19U, 0xffff0400fd7f00feU, 0xff0105040403fafcU,
  0xde7e7faf5e61506U, 0x600f01d14e60c81U, 0xfb26f6fa0c220f09U, 0x10f22d0209f9ef09U,
  0xee430fd7b8180fe3U, 0xfe5ef2ccafd00deaU, 0xc33ae681ec1f61d4U, 0xfd13b604ebd7fee5U,
  0xd0f01d0cfd02fe0fU, 0xff0232030de8ff50U, 0x20806070381f806U, 0x6001001082b3cfbU,
  0xbfa1f12fd0afd03U, 0x2f9f8fa06190ef9U, 0x901ee13edc1fedcU, 0xf7fd81f3de2bdf01U,
  0xfc0715f106a750fbU, 0x9d10254f6055cfbU, 0xdbe624f632f8f311U, 0x81f4109ad4001d03U,
  0x73ac7ff6def597U, 0xfb221744a6e2e600U, 0xaf203e8e6fa0de9U, 0x2afaf301c6f30f18U,
  0x24faff03fcf704f5U, 0xfd00ff0006f7f908U, 0x2fc04f904fbfffeU, 0xfa010203018100U,
  0xf73c18e1fd9935d7U, 0x10d001fdd20a8704U, 0xfffb7f3f2b05c1b9U, 0xfbf8fb57f70303ebU,
  0xfbf8de81fc42ccd0U, 0xff470153c3f1d7feU, 0x6a401915f4f40804U, 0xf119082d140207f1U,
  0xf67f14b5e6b874d2U, 0xfd4df91a8de65affU, 0x993614852e0078d0U, 0x9bfd03bbacfe48f7U,
  0x110a05f806fe07f7U, 0x301c2ffec17fcf5U, 0xfe00fbfbfa16fefcU, 0xfcfdff00f781f009U,
  0x202a0af33f1eed1fU, 0xfede3e01db7f0ff0U, 0xd728e327dd1efbd9U, 0xf809faedd2bf0c0eU,
  0xf41200edfefe150bU, 0xf71e00f2031efafeU, 0xf611e4e0ff027ff2U, 0xfe3dfa00fbfdfafcU,
  0xf9fdf4281206f710U, 0x20c11e91424fc02U, 0xe803e70401060700U, 0xee063405eddb0a7fU,
  0xff01ab864cdf28dbU, 0xffe3dd64d6003215U, 0x81ad0cf702c21bf6U, 0x7402d8e9fa43fe0bU,
  0x1123140df6e1e406U, 0xec18aa120626fae2U, 0xf0031cd818241f0eU, 0xf6fd53e013568124U,
  0x1dd1dc1fd4cdf16U, 0xf9250bb206bd58fcU, 0xfb0a81d5d1032540U, 0xdd07f3cbfc00100dU,
  0xf8fa220be4f7f603U, 0x40a1bfbefc7f3fcU, 0xaef1aeb17fafe3eU, 0x10c7f081dcf0a09U,
  0xeae0df36f5f015caU, 0xf631ee2a3031edfdU, 0x6d95dad70a06f9d8U, 0x381221fe2150bf2U,
  0xea2dedf5fadbfbd1U, 0xf902f5f4c910d0f8U, 0x907ff50aedee1cc5U, 0x14e404f8cd062a11U,
  0xb977f0efcfc03ed5U, 0x33401f381bdc7ecU, 0xa470eeb30ce847a4U, 0x242ea330bee61fe9U,
  0xef08fc470d13d0f4U, 0xfc27f49dfbe8f1f8U, 0x818af3050bfdfd0eU, 0xc845041e1410011aU,
  0xdc02e306c4eef0f0U, 0x500042e05fa0116U, 0x7f68000012390200U, 0xd0b70deef1f3f2e7U,
  0xd0fcec0df9f307f7U, 0x2027f010cdaf3afU, 0xfe08080204f7ff00U, 0x80218040b3f2d02U,
  0xecfffb03ff05ff02U, 0xf902220000f6027fU, 0x7fffeffffc6fd02U, 0xf7050003172a02U,
  0xf00bbf00fce7f001U, 0x2f118e714ddf402U, 0x8182eceff1f5000fU, 0x111e13ff1b2b0ff8U,
  0x370904f904ff0608U, 0x5fa81fffe36025dU, 0xfb0004fffcec04fcU, 0xfa0705fdf8decf10U,
  0x7754000080cbU, 0x10a32000063daU, 0xfffffa5000009507U, 0xffffc5cf00011164U,
  0x5e58fffff2f1U, 0x813300006975U, 0xc0000000fffff9cdU, 0x228fffffc2c8U,
  0x598d000090faU, 0x52c9000039b4U, 0x673f00008278U, 0xe3a90000808fU,
  0x19e3000041b8U, 0x89ec000098edU, 0x10198ffff7de4U, 0x9dc3ffffcadeU,
  0xd4110001129dU, 0x95300000dbc6U, 0x9b3ffffff86cU, 0x666c0000f66bU,
  0x825b0000860aU, 0x277e00000c2aU, 0xffffb25f000057f1U, 0x73330000b19aU,
  0x2bb5000032d7U, 0x11240000018b7U, 0x2b6400006c74U, 0xfffffcd400003b76U,
  0x1a96b0000b5d6U, 0xffffbf8d0000acb9U, 0x199a0000589aU, 0x5e210000f2ddU,
  0x262ff90ffd0c0cf7U, 0xf6f523f6e4f3cf22U, 0xb605ff0b03e80461U, 0x3808f0fc13fe02b0U,
  0x142979027f0b0100U, 0x6ecdff8fc188103U, 0xe6f9e9f64907fd10U, 0x240e0a1015f911fbU,
  0xf454066a0e7f29ddU, 0xd906f8f444ce7f0bU, 0xe2f81cd91d23f72aU, 0x4de80a2bf6bd2ec1U,
  0x7f8193f7e5ddfffaU, 0xd05313bb1c3d21deU, 0xbffb480292bcf6f4U, 0xc103e581f90bf9e5U,
  0xed21f91ef60905feU, 0xfbfccf103afe3ffaU, 0x2e00060b03f205ffU, 0xf60eeef917fefb11U,
  0x1e2ae8fb9d0dff00U, 0x3340c07f6076305U, 0xebfadc02050e0215U, 0x1fe4fedbe90e0e06U,
  0xa95f7ee16f759fbU, 0xc4ead0f39208U, 0xd0ef2ebf220ff728U, 0xfdc3091c34fdf9f3U,
  0xe83789e3c2f40517U, 0xddd23cca271231d9U, 0xedfb21fed105fdfeU, 0x4b7fb7537f3911acU,
  0x81817f817fc28181U, 0x7f7f81818181877fU, 0x7f7f817f7f7f8181U, 0x817f7f81817f817fU,
  0x86f7c17f3981817fU, 0x81817f817f7fb57fU, 0x817f7f817f7f8181U, 0x81f97f68857f8181U,
  0x23aaece90cf48b06U, 0xf9eec0d64fea6ee4U, 0xfc0122bffee90ccaU, 0xeaedfb2d38f31219U,
  0xf03c5a0115f811fbU, 0x60202f3fef7ebd6U, 0xeee50906eb00110bU, 0x33abe6df071e20cfU,
  0xf130fa02fff30cfcU, 0xf0fa28fb36003d06U, 0x2301020cfeef0605U, 0xe301f5fa0afcfb13U,
  0xff04e406b909fdf9U, 0xfe380c04f0ff4709U, 0x3f6dc02e8f50114U, 0xd0a06d10a040821U,
  0x145ff414f8b12bfeU, 0xd2f308fac8f5b5ccU, 0xf9e81adbf4ee10daU, 0x1005ff3906cd3c0cU,
  0x4a47fe011f112e1U, 0xe302f5f208f7ffd5U, 0xdae72c1205b40906U, 0xe4f8df1ff1171411U,
  0xc21fcfa04f009f4U, 0xf6f92bfdf9f9f304U, 0xdb050010faf7032aU, 0x1bfff9f20504fad8U,
  0xef11f601330bfaffU, 0x3e1f806f402c209U, 0xf9fce1fc06f5fd10U, 0x5e8060bf5fb0326U,
  0x8d8f00007061U, 0xffffc7140000187bU, 0x12370000007bU, 0x2c6500001affU,
  0x1aafffff38bU, 0x19c000085dbU, 0x1350000a5daU, 0x2c52000008beU,
  0x5eb8fffffd31U, 0xfffff0060000074cU, 0x3cb400002fedU, 0xfffffc85000002e4U,
  0xc88fffffdeeU, 0x1d0600000378U, 0xffffc1b500000ae4U, 0x3ccffffee56U,
  0x5a33fffff9d9U, 0xfffff8ad00004252U, 0x4dd00000b4dU, 0xffffff7800007b7dU,
  0xb4d900001bf8U, 0xffffe5bcffffffecU, 0xffffdd9a000071d8U, 0x6e7c0000070fU,
  0x8ec8000014b7U, 0xfffff3cd000003ecU, 0xffffa9ad00006946U, 0x173a4000000c2U,
  0x51050000278dU, 0x1b4ffffbff2U, 0x9a9ffffff18U, 0x23600000332U,
  0x2226014a01f8e9b8U, 0xc7f908e70dd6260fU, 0x33351497bdd97ff2U, 0x2425131d3b1b1b4dU,
  0x4cfb28ef578d27d0U, 0xca370114cd946fe2U, 0xe9e4d714134747deU, 0xeb01e24a00f4024fU,
  0xdf38e3ffea4dd8c4U, 0x3de9040a15e8e007U, 0xfafc14d4edf5f01cU, 0xdafe0af88119ee08U,
  0xf86addd2acdaf902U, 0x4daf7ead2d6a131U, 0x22ede5d817eff911U, 0xbf302f420ec0711U,
  0x7fee49e61300f2e2U, 0x34a904dbf2bfe8fcU, 0x10feeae7eef7ed1fU, 0xe01e13ff10fce91eU,
  0xfeec08f8e72f071aU, 0xfd4ddf03f700f0f3U, 0x9fee8f618fdd203U, 0x6f2fadc17e581e1U,
  0xf80103ff08f5fbU, 0x1fefefcfffdf4faU, 0xf97f10f900e401f8U, 0xfffe02fc080209faU,
  0x80706fbfb000500U, 0xdfe01070702fc07U, 0xff09eedd02fefef0U, 0x2fb0aff070602fdU,
  0x506f1101d34ddd2U, 0x4fdfeca0204fdefU, 0x9fe14f616f5050bU, 0xffe31704b027e00eU,
  0xce313f719d48121U, 0x160625e4fe2724a1U, 0xb56cf161de8e01bU, 0x17192bfb2225cf08U,
  0xf5ddf9f6f3ff1400U, 0xee7f1130623f803U, 0xdaf11b5cddc919fcU, 0x12e9010437e905faU,
  0xfc05ec0802f6f443U, 0xe8fcf725fec817fcU, 0xd57fe8efe609d3f7U, 0x4faf4fdfaf2f9feU,
  0xf2f2270700090dd0U, 0x8129f906ff05f60bU, 0xf9050f1920eb2500U, 0x19fe0114bbff09ffU,
  0x71212f3f4d2f5c3U, 0x1319fe35fefffafdU, 0x8fd33ff0d0b19feU, 0xfe140006ed4607U,
  0xf329efe6756202e5U, 0xf3e70784381e01f2U, 0xdf053019baeb5033U, 0x11b9fdedf926fe04U,
  0x8fadc080f1a2c1fU, 0x21006332182e2121U, 0xe792cb00d4e9e40eU, 0x213c2051c7f20f8U,
  0x1915f727f307f588U, 0xa1fa03ed0ef13b17U, 0x3b4005b5f3b04cf5U, 0x202b3e2f400f3830U,
  0x38082efb3a941ad2U, 0xd237e90081bf24c9U, 0x422f91c32361bd3U, 0xe6eb0e262203fe67U,
  0x8e00bcc01fa050cU, 0xf40505ec0602ecf1U, 0xe938fe0bdd331cfeU, 0x1a1c01f012050819U,
  0xa5ec1b2c180414bbU, 0x8114f812720c1303U, 0x2003fe09fbfce5f6U, 0x3f3db06040ffff6U,
  0x3fe0104f016e0fdU, 0x200f10504fafc02U, 0xf92df5fa06e6f303U, 0xfc010af0ea0c0303U,
  0xbf8fe8109fcfc06U, 0xeb03f4f300f10b03U, 0x8f2fb060701f7fbU, 0xfdeff90c0cf405feU,
  0xf7c808f658df06fcU, 0x3803e5400014f0eeU, 0xf7030d5d00171e02U, 0xde1e16f0f9a28106U,
  0x710daf7ed0df701U, 0xbdf5ce1ff09f4ffU, 0xcdf1fc2bfdf21bU, 0xc0d0ff4f6a8eafeU,
  0xbf9fd10ecc01511U, 0xeeecdffb0a0afcf3U, 0xe9ff819f07f70e04U, 0x41def30e8201e04U,
  0xfac71c0f1bf1fff6U, 0xf300df05fa1f24c0U, 0xd500ffd92d02e10dU, 0x57b2afabefde5f7U,
  0xf9eff53dfc11d0d7U, 0x9ddf907f9010517U, 0xf310217fc81f31dU, 0xda0f14e91d030505U,
  0x3b26efa8f0f1ad55U, 0x6df400a6aef3f6f5U, 0xc40dcc20f06f016U, 0x621feeb16f0dae7U,
  0xa9e8a8ecee01e9e8U, 0x3e1eec052a432bfeU, 0xf800e3c2f1f3d9f6U, 0x52fd0c0f25f2f5d3U,
  0xf3ecefee311213e5U, 0x3e013f1f0f14ef8U, 0x10f0ed001d02bf07U, 0x13f8fc290b2a81dbU,
  0xf4700192fdfb4233U, 0xd07e9fccf30edd0U, 0xc2b509253c08fbdcU, 0xd5d7afa6eec4e0b3U,
  0x88dec7f80b1b5749U, 0x7ce8fc5b44361450U, 0x2c812708d1e4370eU, 0xefe90ca9e50f0f41U,
  0xfd1a00ef05f14bddU, 0x18fdfdf4fc04f8ebU, 0xfd7fea09010609e8U, 0x2e312e1e805df05U,
  0x5f8e9100deae915U, 0xed03fdefbffb060eU, 0x7ffe3f908f80020U, 0x7e0cb0dec01f202U,
  0x8f213cbfefbfd1eU, 0xe409f6ef14fef1f7U, 0xe55cf801f4400407U, 0x161afefef90510ffU,
  0xbde0132e0f233ebeU, 0x8119021f621d0d0bU, 0x1cf41b33fffc0be9U, 0xf9f8dd0f0a00fd0eU,
  0x71075905fd03f9feU, 0xe981f4fbee2ef2feU, 0xb01fd0005f42d09U, 0x2729100bf40f0f23U,
  0x40002f80ae707e7U, 0xf9eaeff1f9f4f30bU, 0x10f9e8fafa101cecU, 0xea00ffe2fcf90a0dU,
  0xf7dbef06c42e27d0U, 0x18fc1531f8ffdcfcU, 0xf2040432e6f046f6U, 0xe6d726abcf38fef3U,
  0x12e409f2f125a31eU, 0xe7db04e93c3073U, 0x1cbdbebc1f0cd51dU, 0xfa3dfcf6d881dcU,
  0xf31ef30a33fdfe0cU, 0x160a04c76d0f7f06U, 0xe90303f3f603ffc8U, 0xe914f209e70a0cb2U,
  0xebf4e604f507fbffU, 0xfb2fd608fd04e40fU, 0x1cf8f90120020e00U, 0x251910510cf70805U,
  0xf805fb06e5e93106U, 0xfafc1030ef09f7e3U, 0x8f51c4a29f6f7fcU, 0xfa0ef0e92a000708U,
  0xf10bf2fcf4f77f09U, 0x30f8dbe415c2ea48U, 0xc3e70b0505e60614U, 0x20f81107f4e52612U,
  0x23027f0701f8d6U, 0xccff1802eff8e6f3U, 0xf40405faeceaeef6U, 0x2c01fe1bfe263c2fU,
  0x67f71eede7f10304U, 0xfb2d020300000dfcU, 0xece3cae00e3ae5f2U, 0xf0f40026f9f4fb17U,
  0x20efe00fe02f9f9U, 0xfefcfb0bfeff02e5U, 0xfbdcfafef9fa08feU, 0xfb130501ff01fcU,
  0xfd01f97ffc070007U, 0xfb03fefef711f90dU, 0xfa000704020b0401U, 0x30c0505f8f5fc06U,
  0xfe12d07f191000afU, 0xe8d2ffff1aec1b0bU, 0x51efcbeced207ffU, 0x20053e1248220438U,
  0x3d521bfbf4a6f5acU, 0xa91f22f9e49ae4e6U, 0xe410eac1101c55f5U, 0xdb03f42ef6f13714U,
  0xf5d11151e89e7104U, 0xf1100dffb912f505U, 0x22f2e97fdc2534eaU, 0x1edcffad1ac2cdeeU,
  0x24410208121d20e7U, 0x1c16ead80c022f12U, 0xb86e4930b44093dU, 0xb7240fbfea0bfb00U,
  0xfdee79eff9eb1010U, 0x3a6af8fb0bf202fdU, 0x7fce7ed13f40d08U, 0x98fa100a2dd1cf02U,
  0xf6f3fd0b212c0cf3U, 0xf8c0f916d62e2610U, 0x36e301f5fcb8d005U, 0x30afd09fc81cfU,
  0xab008109eb01fa00U, 0xf14407081be51bffU, 0x605fbec13f70af4U, 0xf4fefd09fb0c04e1U,
  0xfefdfdf833e9fde9U, 0xff1e0bf8f8fc2009U, 0xcebf9021b0e04f0U, 0x7ff022c0107faedU,
  0x81139d2ef802f2fbU, 0xf550f00b42014d03U, 0x9a06fc17fce50d9fU, 0xe9eaecfde90ef394U,
  0x28f4b30423effaf4U, 0x1113090415220341U, 0x101216081dff1c02U, 0x10a1568fefa022dU,
  0x710ffcc0007fc05U, 0xfa07fbebffe7f3U, 0xd817fee6f40ce7e7U, 0x41d0911e7fe06e9U,
  0xe5ef120dfffde6e2U, 0xc0909007ffcfd1aU, 0x15f20bb110090d15U, 0xfffd02e00c09f5fcU,
  0xfc06fe2cf216f1c8U, 0x160704f0e1fcf0fbU, 0xfefc0706f6eb7feaU, 0xfcf509e8140ae81aU,
  0x1c16f6f907d4f6b4U, 0x309f9f103e6ed2fU, 0x1d1d000018ee270fU, 0xd5fcf70812fbff0cU,
  0xe05712e51f0a67b0U, 0xe71a1ce6161a2be6U, 0x33eede45152a3a1fU, 0x1bf5feccecf8defaU,
  0xeb4ce4fbc5994cfbU, 0x26ff0b0a250ba930U, 0xc5d4f5dfdcf234eeU, 0xe611f6fcd3137f2eU,
  0xeb4a20fa191bf12dU, 0x102ae31d0128fdfbU, 0xe90aebe9bdef1502U, 0x1dfceddfc732281bU,
  0x22ffd1f5a73a5b4dU, 0x1a12277f42feeb07U, 0x92de344df482ed4U, 0x1d17eb22dee4db4cU,
  0xf61212450015efceU, 0x4080513d208d8fcU, 0xeff70f18f8ed38f0U, 0x2af7ffff0c150d12U,
  0x3b1cf6fadbd9f8fdU, 0x2c16fb2e1cefdc22U, 0xf70307f8f6213305U, 0xe60a00fbf4f70e7fU,
  0xef049af719ec0cfeU, 0x1c81f4fefcfaf100U, 0xe901ff00e2f6a80fU, 0xf6f1d7d011fd1b01U,
  0xde40505e4fe0f1cU, 0x13fb1f1e1b13d9eeU, 0xd44104ecfbf6ec1dU, 0xcf8eff609152544U,
  0xff00fced13130cf2U, 0xfffaf8f41208fbfeU, 0xe504eb1ef07fef0aU, 0x5e5eae7070f0301U,
  0x208fffbff111bbcU, 0xbbfc0c0cf90b030fU, 0x51cf701fbfaf2f4U, 0x7faf90a070ff2f3U,
  0xcecf910100e1e2bU, 0x2f2001b1cf61ef1U, 0x5bf912dee92df923U, 0xf40d5612f630fe39U,
  0xe50a2d7f15060500U, 0xf3edf9e705fc1008U, 0x3020cf713d4eeefU, 0xe1df0538f8f808fcU,
  0xfd060d3a2df3d6e6U, 0x917d72807f1deU, 0xc7f0ff1b3ad00822U, 0xf90897dbd5e41113U,
  0x80717e6ea177f37U, 0xbffa2a03edcc0bffU, 0xc9fecc1ff8ff0bafU, 0x112b4a22f8260bfdU,
  0xde28cd0ae7e8f818U, 0x9e0f803ef0fe918U, 0xcf2df00f91f0e11U, 0xb5e40021b00f0102U,
  0x775ec1481da0a1aU, 0xf8a4e0f9030f9dd5U, 0xd409f20ff300faf9U, 0xf82602eaf8f4f6d8U,
  0xef1c3a2e222f6f3U, 0xe6cfeb2f58ddf6f6U, 0x4020dc8cafca754U, 0x6190b16e8f0f015U,
  0xcde11e1c410da38U, 0xed21dc32e33715aaU, 0x2502b1e507fec90fU, 0x7fe6191845c4a2c8U,
  0xf2819d2df0cf607U, 0x13fe1518e005ce04U, 0x7af8fbf0f507027fU, 0x271ff00ae50a0c62U,
  0xffe14f07ed0aee01U, 0xfddd4204f50be5ffU, 0x13fe00fce51204fcU, 0x181808b51d2f0907U,
  0xfd04037f0529f8f5U, 0x4ff0305edffff00U, 0xfe07f4e9f80205f6U, 0xf0cf90c07191818U,
  0x4503180007fd0efdU, 0xfb0b0a01140ae90dU, 0x3fa03ff262005f5U, 0xf600f118f9fbfef7U,
  0x2901fce4c618ea13U, 0xdff9033e09ff0111U, 0xebfbf2a8f6d8d6efU, 0x1707172c103f020fU,
  0x6a9121332da24ebU, 0xf60fdbfc03f75281U, 0xda0c11fc18eee210U, 0x1614de1808e2cc09U,
  0xfcbefbef0904d9f3U, 0x1bfc131f0af8edfeU, 0xe105ee01cef08112U, 0xfeed23f6e0f801f0U,
  0x14d5eff61326324dU, 0xeef50006e51e0e10U, 0xddecff8f208c904U, 0x1d0f08f614e7e1a6U,
  0x161c420f2c0c02f6U, 0xf1d0f3ddfa7f0afdU, 0xfdf403142dea1be0U, 0xf5e1f416d502ebfaU,
  0xf01119fae0e310f9U, 0xfec8dad0ff21bd0bU, 0xf618dee9e8e5db1cU, 0x4f5101cdb0cf0ecU,
  0xeef8f51008dc1af4U, 0x2af608cbfb09d6e7U, 0xb5f5d524ffe8f5fbU, 0xd6e51a08d4cfd7f3U,
  0xcd37e8eddaf3f8dfU, 0x4fd901f7c0c0e714U, 0x23c4dd81f115f33bU, 0xf40a3fec1931f107U,
  0xf7d0f310fdfd28e9U, 0xfd1902eca1e4e3dcU, 0xd7fd0207d2ccf6c5U, 0x1c0810e2ef15f8e0U,
  0xf5f9debb149eecc5U, 0x7f27e0385bcb2d76U, 0x32cb10f3f2325a0eU, 0x8805bfedf00ce22aU,
  0xf1f9d9010cf9ec9eU, 0xeeede8d1f2dcf2f3U, 0xfef8030ca52202faU, 0xd3fc0a21dc17ddf1U,
  0xf7fcdaf4b688d7e4U, 0xf5ea034bd68123f4U, 0x120cebeddc02b530U, 0x260ff402062ac801U,
  0x5fdfbd3ed0012fcU, 0xf2fef7f12d031005U, 0xf0103f1f903141dU, 0xfa1004fff9f1e7f9U,
  0xdbfc1a002df90002U, 0xf7060e0d06ffe704U, 0x5fdf0fb35f1f6f7U, 0x4a4107f97f09fef4U,
  0x7f818fdf3270aU, 0xf5f9e6f7fc000eedU, 0xd7e300e01bfa05fbU, 0x4d8e3f7fa00ebf7U,
  0xf407edf0fef9140dU, 0xfe0604f5e0f1ff08U, 0xfb02ece8f7eb0102U, 0xf5ef7f01fe060012U,
  0xdafdb20a20e605e9U, 0x14280bb6f98ee302U, 0x2509f44878015b05U, 0xb9d6e62dc62bf61fU,
  0xe05108f9dde55b48U, 0xe2084581f826c733U, 0xe7568afdd2c0bf2bU, 0xf4fd250de36eb9c9U,
  0x142e7b7c20dcc6cU, 0x1eef062e2ff2fc1fU, 0xee0f0de6260dba2dU, 0xdb16d120fc1520f5U,
  0x10f2fe0cfd16be04U, 0x4f4d7cc12ecf99dU, 0x621f58261211da1cU, 0x71201d0649b8c381U,
  0x421f11b26102804U, 0xe3f609f2f8e3f328U, 0xe16faf4f2f50ef4U, 0xfea3722200ae80bU,
  0xe5ebe98109fddbfbU, 0xf30a0a0fe41b03dfU, 0xc83807c5eb08ef0fU, 0xfaee021ede160d03U,
  0xfbdbe4e5e6fef31dU, 0x11e410111aef3416U, 0xfdd20303edce8e1aU, 0xe1de06040200f0faU,
  0xe9b4e0ccf90ca031U, 0x11eaf31981da19daU, 0x345ef2cdf7f38320U, 0x4cf72ded3001c8eaU,
  0xf6e90addfd2ae6fbU, 0x180400ffdaeaed04U, 0xfdf42a02fb04e0fdU, 0xf30efdef06dd4cefU,
  0xe32beefff0121e07U, 0xff400fe10e2e853U, 0x1bfff6f1f4ac2aeaU, 0xfd81f9e40df2fb00U,
  0xf6d339d6f9ee29ecU, 0x3e2609d7fc0ef1cfU, 0x706ea5d0a07f719U, 0x100f9ee4bb1fe02U,
  0xe204fcf60c292b04U, 0x330501f408140d7fU, 0x38ade6f702111215U, 0x1b03fdd50b160004U,
  0xc1181c3ecd500f6U, 0x70942b122019f0f8U, 0xfdf3dc01dafb061dU, 0x5ea16c8200918f1U,
  0xeb5caeabb6d4625U, 0xa0df452e8cee80aU, 0x11b31df9f62eab09U, 0xfeb05f904e6b1dfU,
  0x1312e7f20cef09U, 0xf90f04f71c0fe6f5U, 0xe7300bdde633f414U, 0xbf8cfeee4060407U,
  0xfbe30c23fe1c4bfcU, 0xc50af7227f1ffefdU, 0x2db1082100fa30edU, 0x313f30f0109f401U,
  0x307000300f70df2U, 0xfefe03fdf3f90bf0U, 0x81f1fcfb00f7ffU, 0xfd0002f6f40e04f7U,
  0xf9f7f8d60afde9fbU, 0x30201f502080dU, 0x401f3e9060301fcU, 0x5f504f60101f5fdU,
  0x40703e6041d09f9U, 0x7fe2201f3f713f5U, 0x101536ebf9f801f5U, 0x112f8f5080210U,
  0xf0fa02ecf90cfffaU, 0xfbff0afa11fe042aU, 0xf4f9060b080600fbU, 0x1dcc81fb0903f30aU,
  0xe2571476b27b07e6U, 0xe1be35bb014b1caU, 0xce0428161755d48fU, 0x2f81fcf5e36808eeU,
  0x17e0bb092aed3652U, 0xf324ba28bf5e0804U, 0x8abaf4f9e5f39f47U, 0xe69512feed9be451U,
  0x1b15ce102056d707U, 0xbfd5f7f91add0c14U, 0xfeff118111cbe10cU, 0x2e230f2ef01f2302U,
  0xccb22f213c217fdU, 0xdd160aedfcec12fcU, 0x53fbe6e6fd7ad1e0U, 0xf7beeb1248f0c80fU,
  0xfe3d8812f517cee0U, 0xe785f70bf903e80aU, 0x2fbd18ebbcae7eaU, 0xf8291059a53801feU,
  0x953f5f1ccc5da00U, 0xe6e70cccc6dff7c0U, 0xf227cad0fdea900bU, 0xfde623fd20ff81efU,
  0x2f8fbd0f8f00af4U, 0xf9f904fe060707f8U, 0x611a816f6f3160aU, 0x100500f605090bU,
  0x6002715f60d120bU, 0xf700ee0a0f0708e4U, 0xee07f9e91003fbf0U, 0x170f8100da0af3e7U,
  0x5e9cfffffe76U, 0xffffcb69000060b8U, 0xffffdb9d0000bc0cU, 0x4518fffffe71U,
  0x4a1e000058f7U, 0xffffa8d400005873U, 0x10c7d0000afc5U, 0x307200006bfcU,
  0x66f3ffffc46bU, 0xffffd516ffffcfb8U, 0xffff23b300006513U, 0xffffd8ff00002269U,
  0xffff296c0000bfddU, 0x21e7ffffa408U, 0x91000000768dU, 0xffff4fd3ffffd51dU,
  0xffffe4ae0000125bU, 0x2c760000f271U, 0xfffff1d1ffff9406U, 0xaf580000687fU,
  0x16d10000335dU, 0x59d600004b0eU, 0x4bf5000066b4U, 0xf1600000d22fU,
  0xfffff64c00003555U, 0xba0f000032f7U, 0x10195000068dfU, 0xffff2ddcffffca39U,
  0x7a0b00000d1dU, 0xfffff5f000006f41U, 0x76700000f59bU, 0x2c4f000134d6U,
  0xc43e3a38474351e3U, 0xab2b8ec12b511c5fU, 0xb6d050bc4cbfb643U, 0x343fc1c24143c1b2U,
  0xb6415cee32b3aac1U, 0x44574a3d4233c0ceU, 0x32cda8cfbd42b2d4U, 0xcacd48c3c5349c31U,
  0xa85353555d5d68daU, 0x325700a44a64b47fU, 0x9ac569b65da74960U, 0x5751b21c5c5da797U,
  0xa15d65c74ca43dafU, 0x567f5d4d573dabb4U, 0x52b081beb45e92afU, 0xadb357ada7528156U,
  0xd4272922332344ecU, 0x1f3842d5273b3d37U, 0xc7e436e133e01c33U, 0x351eda62292fd9c7U,
  0xbe3532e32ae517d6U, 0x2d5d39183423e4dcU, 0x21d2c0dfde2fbad3U, 0xe1d524cfd52ac82aU,
  0xa95d58566752675fU, 0x814f81a4546933c7U, 0xaca1679f66a28161U, 0x5066a3c05d5ca7f8U,
  0x9f616dbc4da581abU, 0x58bc5d4e626599b7U, 0x4faf18a0945b95aaU, 0xaba96ea7a84a1a57U,
  0x817f7f7f7f7f7f7fU, 0x497f26817f7f81b0U, 0x81817f817f815b7fU, 0x7f7f81327f7f81e6U,
  0x817f7f817f815481U, 0x7fa97f7f7f7f8181U, 0x7f811f81817f8181U, 0x81817f81817f257fU,
  0xc13e392e423b4b4fU, 0x3a3b6bc23e4956cdU, 0xbdca3fcd43ce2241U, 0x4a38c07f3547c6eeU,
  0x934d41c845e11fc6U, 0x44ea46453e46cebeU, 0x43b618bfc83b9fc2U, 0xcdbf42c2c7420f43U,
  0xd1303a2d362435bfU, 0xc833c5d6364815e2U, 0xd2ca34c939d2b633U, 0x223ecfdf2d31da5bU,
  0xc53139d22bdfc3cfU, 0x28e93a1a2e44c2e0U, 0x2cd82cccc93bcad7U, 0xdbd034d7db244535U,
  0xc0494a3c3b41499fU, 0x1d4122c14851c1cfU, 0xcaba44b53fc32e3fU, 0x3a45c3243e46c87fU,
  0xb44545b744d71bc0U, 0x3cc3464d3d52aeb7U, 0x49c457bac23b9fc2U, 0xcabc4fc0be3d6c46U,
  0xe01a1f0e1e1f26c6U, 0x1c1232e11c312ce8U, 0xe4db1ddb22e81525U, 0x1f1ee234152ce64eU,
  0xcb2a29e4260109e3U, 0x1ed723331f29eedbU, 0x27dd2fdbe91ecbe9U, 0xeae326e2e2252b2dU,
  0x80fffff1e7U, 0x3bd100000cbcU, 0xffffa9bb00001123U, 0x187f8000001b2U,
  0xfffff2e9fffffef8U, 0x81000022e5U, 0xffffffd00000d7bdU, 0x7e49000021a0U,
  0xfffff63100004a0dU, 0x3ee0000b0b5U, 0x4cf000249baU, 0x1353a0001dc9fU,
  0xd6eb000000aeU, 0xab45ffffff53U, 0x1ab4a00004b37U, 0x1300000359U,
  0xba890001ec87U, 0xfffff8fa000202a1U, 0xfffff2a9000074c3U, 0xbaaafffffac9U,
  0x1d2f100023cb9U, 0x1ec000003acU, 0x12100002ab6U, 0x3293ffffed71U,
  0x47f30000edf1U, 0x25f20000001e6U, 0xc9f300018c04U, 0x16d30000c868U,
  0xfffff2b9fffffbaeU, 0x881bffffffdaU, 0x8710001c607U, 0x9c5f0000b11aU,
  0xaf1ee0afb0725d5U, 0x505fe13fff30efdU, 0x6f7f7fbfafb03dfU, 0x609052206ef0605U,
  0xe301dbdd02f7fa13U, 0xf6021dfe0307ef00U, 0xb147f02f8deebebU, 0xfcf5f616fbfaf2e0U,
  0x3f692e22d0d7f10U, 0x1b07fceeb6d1e807U, 0x230d5f0abcccf82bU, 0xd2e009fb3f2ae1fdU,
  0xdff1e8dce30904c6U, 0xce18d7e9ea160014U, 0x100ee00a4fdafbe0U, 0x14ef290aed1f0620U,
  0xf31a81d7fc11eaebU, 0xf91ef2f6d90ec706U, 0x1010261b2108cc12U, 0xed0fa2f8fe0cf0fdU,
  0x210931e9361c0fb8U, 0xf0c0602e8de0e14U, 0xfc1011371dd90f39U, 0x7180bf40301d5f6U,
  0xfd1408f9f8fd0aeaU, 0x2004fa0708fc06f8U, 0xf601e80418ffe803U, 0xf6f981f605f4f2fcU,
  0xecf6fae81ffa0016U, 0x3f5030beff902f4U, 0x401fefbfe1dfce1U, 0x2eefcff00dfeefaU,
  0x18eb0481f7e3e8f5U, 0xfbe8e840eedfec05U, 0x5b24d0022111edf9U, 0xecebe429ee1a0412U,
  0xfac1d55902e700d9U, 0x2cecfd444205faf7U, 0x1752212df353efe8U, 0x150d8720f7d520U,
  0xfc07e8fb05ece0ebU, 0x2019f6f917f7ef0aU, 0xfdfcfea81a3bf5f6U, 0xef04ef7f601806e8U,
  0xffc13f8ee0712f3U, 0x1f602b7fd08fe5cU, 0xecf6400412190ef6U, 0xf8f1fdfff610f5e8U,
  0x1ae8eef6020afbf0U, 0xcd72610f807de00U, 0x81d067f03e7ef01U, 0x1ff9f3df1efdfce1U,
  0xf7010b00f013040dU, 0x1fe18b41907018dU, 0xfe1ded1806480c12U, 0xf503f315eeffe5e8U,
  0x150cf7f019ffda16U, 0xbfc05eaea0c1a00U, 0x3ec036ffe0f91d2eU, 0xf5db7f01000f3410U,
  0xdb43090f1206d3U, 0xed02d3fd23f9d519U, 0xd434f86b0206ef34U, 0x1640241621031606U,
  0xf0ecdad7f0f60516U, 0x2f83916f92c44e9U, 0xd6fb1aea0a1e2a81U, 0x201025f5f30f0cf0U,
  0x1eece9392119fadcU, 0xd6014811103d05e7U, 0xfa02e8121ea41cU, 0xeb1c200605793105U,
  0x11f604dafcdddde6U, 0xf3ee9bd3d823bfebU, 0xd8232e1a0018810dU, 0x132ff40ddef3f0eaU,
  0x66ea22eff82ada10U, 0x1b00ee16cce25a04U, 0xe2fafe0ff21d094eU, 0x3153bacb01f0d70bU,
  0x1600fee40400f507U, 0x5fe00fc7ff509ffU, 0xfef000f9f2fc0705U, 0x1ef04fb03fceaffU,
  0xf4f8020cfa0108edU, 0xfd04fafce300ffU, 0xe7f7fc0414f801faU, 0xfee9170ffc020404U,
  0x10fbf309f902fa00U, 0x3f6f80103fafbfbU, 0xfb0910ea05f90104U, 0x104fe0b7f070101U,
  0x8eefa01fdf803fdU, 0xfafd0afe11f8f922U, 0x40400e6020bf6U, 0xfcfa05f3fd02f2ddU,
  0x21ecf517e502f136U, 0xf0011d0ef62f014bU, 0xdeec2c080a2eeb0cU, 0xcb812e16d3c00e2aU,
  0xc6f9f1f8f4fd1febU, 0xbf3de5f03d0af2ffU, 0xf1d01104f1eefd17U, 0xad324e2f1fd11dcU,
  0x90311fd0081f704U, 0xf790102fd0813f0U, 0xfa13f6f11de804ecU, 0x6f0f44013170606U,
  0xfcf2f2180aedf8edU, 0xfb0907110c0b0205U, 0x30607fc0307eee1U, 0xf6fdfff3f508e700U,
  0x6f1d7d8f7292834U, 0xedd5fcfa21feed12U, 0x4b2f294dd640116U, 0xf531fa1e4fe41642U,
  0xf71efcc7f315f718U, 0xe340f93b5089f7fU, 0xe9d0e0e60d0df2e1U, 0xcfeb2d06e11201c9U,
  0x9ffce6fde50cf5fbU, 0xee0618e520dc16ecU, 0xfaddcff04a0d13fdU, 0xfbff2dfff3ffeee9U,
  0x907c8098ef3037fU, 0x40ef35f6eef2f5f7U, 0xe80301f9d5c50208U, 0x1006e4fbf11623f2U,
  0x3d2ef7cc23fa25U, 0x170e1103e51c383aU, 0x1001e7df0023e418U, 0x298100e4d2e3130bU,
  0x83f718f810de8a04U, 0xeafad7e9431d16edU, 0xaf80e084ff8ffe5U, 0xcf5fdd1ffe8f71dU,
  0x1b00e60cf5edfb00U, 0x13f50520fe10ec04U, 0xee0a08fd185fea07U, 0xedfec026ae003f1U,
  0xf001f90aec37fb03U, 0xf160c811b07e016U, 0x3060200ea40010dU, 0xfcf5edf3ed04f106U,
  0x34cfb503445d9bcdU, 0xea36ebf736da1932U, 0xf11ff0247fad0bd1U, 0x1a3201296a5cea5eU,
  0x49e705060d2c16f7U, 0xc1e3351f3bfad82dU, 0x7abe0527a41e5198U, 0x90a261fb82b648fU,
  0x284651e2fcd81018U, 0xc3e2bcf9f2d80b3bU, 0x3ed70beaf31b0102U, 0xfa7fba29ed1a1932U,
  0xada2804d0cb49ccU, 0x490e080fd03010efU, 0xb92ff6f26c020242U, 0xf60e0cfd0d95181aU,
  0x2101fa040a00fc02U, 0x103fe01080c0604U, 0xfae9fc01e7fafe03U, 0xfefdf0fd01faf508U,
  0x40603e97f02020dU, 0x30407f7fff901fdU, 0x806fdfe010000feU, 0x404070308fa0afcU,
  0xb43541e8040b0643U, 0xf9d6f613e00b174aU, 0x3c4e8d1094614deU, 0x18b91e0bc0070521U,
  0xb4e2ff1d15a00ac5U, 0x3c0afcc85af315dcU, 0xf1231feb7fd70522U, 0x816f6ff14060220U,
  0xfef7fef503fbf407U, 0x7ffed7fafdfcf90dU, 0xf6f8f719f60739feU, 0xfd1f10f704160706U,
  0x30402fdff150e00U, 0x1f5000f0f100908U, 0xeef5fce9fc0efcU, 0xfef9121200ff02ffU,
  0xf3f923e124ebd0ecU, 0x12cbdcd30fe727eeU, 0xee270d208100041cU, 0x5ad719e8153a1af0U,
  0xf412fdd22e4625a0U, 0x1808fbf8200f3210U, 0xe702f223303312e9U, 0xedfad814d3e0f508U,
  0x20013030549160bU, 0x170005fcf90df71cU, 0xe010a49f281e306U, 0x7210e44badfedf4U,
  0xfbf90efb214ed315U, 0xd9c6eb3bf4f2ecc4U, 0x1b0cf534d3f308ebU, 0xf907dd23fb02f1f6U,
  0x3ae6d40df00acdfeU, 0xfd02efb2de10fff3U, 0xcc845ce1a00031fU, 0x2bdf0718ffea39d3U,
  0xf2cfdcd8ecf821eeU, 0x130fd5f913a3c3c2U, 0x1c841c020cf9ea00U, 0xd2ac810cd10552f5U,
  0xfbe6ee02e46a05ebU, 0x36b001ff08f7c705U, 0xfa07de5003f13df4U, 0xfa321881defbe7f2U,
  0xb0f06f9ef081626U, 0xe6fdf330fdfd02c0U, 0x130816dcf9051415U, 0xf712291003ea1df9U,
  0x208f6ea1b33d107U, 0xfe0015e909eafd26U, 0xb0cfc6dfb81f2f0U, 0xe0fb20db9639f8bcU,
  0x18f806b7cb06fb10U, 0x6f2036eef04fba1U, 0xe6d748f61acafbfbU, 0xfafc3032e5fc10e0U,
  0x791003d09f32dc6U, 0xf9f4f0f9181d0abeU, 0xf94a0a14f705f4f3U, 0xdd86010af6110681U,
  0xe5331f1202010e2aU, 0xe6c4f410ea2d062eU, 0xf811cb14b20ff4a6U, 0xe315f2240c10eaecU,
  0x5fde8fc81fb04f7U, 0xf9fee7f60216f2fdU, 0x707fefe00fef582U, 0x40c0f02fd01fd0eU,
  0xfc0ae8171d13050aU, 0x12f1f201ff00ecf7U, 0xfcebffe819eeea11U, 0x9fef5ef16790503U,
  0xefff13187f06ebf7U, 0xfb06fff7f80c0907U, 0x10208f5ed000449U, 0x4ff39f904fe0bf5U,
  0xf900051cdff9fbfcU, 0xf1fdfaf6070afdfbU, 0xfe05f51704fef8e2U, 0xfcff031be3e9f507U,
  0xec0ffdfa03fcf503U, 0xff03f1f4020fec10U, 0x30cecec052014f9U, 0xea0007e714f3eb09U,
  0x120efb0eff077f07U, 0x311f7f4fc07e910U, 0xf805fe02fc1206f6U, 0xef0c0dfa01090c01U,
  0xf3ffea0e00fc14f4U, 0xfdf9027f0a03f1f7U, 0xf10ef0fb03fef5fdU, 0x5fbf70905f3b7f9U,
  0x1407fc03040908e5U, 0x503f50b0cfdebf9U, 0x1a7e03f8011103ddU, 0x11f03f0c1e04f2fdU,
  0x9f3fdf506f7ee09U, 0x1411f105fa03fff1U, 0xfb2010a2fefc0201U, 0x707f90315ff0103U,
  0x5f306f603ee08f7U, 0xf3100765fcf6047fU, 0xff100207f9e8fe0cU, 0xf7f8fff503fff4f1U,
  0x1f408030081fbf4U, 0xd550007fe0a00fbU, 0xfb00041c18caf9faU, 0xf8eefdf1e4e705f7U,
  0xf3fe0401090df900U, 0xfef2fb20faf6fdf6U, 0x2fffb0bf8fbfbfcU, 0x3f0f707f9fd0517U,
  0x5f7030d5501ff08U, 0xb000b07fa05f902U, 0xf2f90100f2fd091fU, 0x3047ffb00fb0c02U,
  0xffef1019ef0209e5U, 0xf5faedfdf705e8fdU, 0xfa0d051cea03f0f5U, 0xf508010df9220c0aU,
  0xfb07f8b60303f8e5U, 0xe70e8be90edefdd6U, 0x25fbd842530de608U, 0xbb1eb515ded8f2beU,
  0x4df3de0de1f80af6U, 0xef3832eba2f9651fU, 0x10e60c5606f2fc7fU, 0x2118f9c70b1bbe2eU,
  0xfffe1b33fefa1ef0U, 0xafb35220e7f02f3U, 0x33060aed0cfb00fcU, 0xde9111a0209ce07U,
  0xf103ec40f505fdf9U, 0xec07f6000bee02eaU, 0xee1d0ab202f409f9U, 0xe3f60420fee20f02U,
  0x4cf20e9f0f242edU, 0x1fe24fd8ed101ef3U, 0x908400256021f01U, 0x4deb1eed17c3350cU,
  0xbb811bd81759fe1aU, 0x18ecdb19096ccefbU, 0xb417ca170a093205U, 0x12aec08f700d840U,
  0xfdf70cf771fcf60fU, 0xf8f7ff1503e00e0eU, 0x2be0edfe0cfe0978U, 0x60101f9fef72503U,
  0xf7fd2605c2fdf902U, 0xe701fff40509f30aU, 0xd18013a0e0f01f4U, 0xfefa0dff0581fc05U,
  0x500932e2150d49ffU, 0xd041054fb0d5eeeU, 0x101603e469fd25dbU, 0x3310f6f602350709U,
  0xd1dc140af436f623U, 0xc3fbebea325be9f1U, 0x9a110741dcaba103U, 0xc67f4fa2f1faf7ffU,
  0x2f4a210210f1fedaU, 0xe7fe0afbe7fb03d9U, 0x11cdd9ee0602dde9U, 0x36d80de4f21d0a06U,
  0xe4cbd5f8eb191906U, 0x24c6f10313dda905U, 0x1d01011afbebcfdaU, 0x1281f00e09fefc26U,
  0xa9a6de140ccd35cbU, 0x1ec509ddf9dc1ee7U, 0x4dbd6f2162df9e2U, 0xbd0ff1f1e60b05dfU,
  0x5dc3c30a2bca1b0fU, 0x1a031241ee64c302U, 0xe212dcef267fb6ecU, 0x100711152cf7c1b9U,
  0xd54d1bd70f1aef35U, 0x180b16fe31f94422U, 0x7cbe3d02d1a3f01U, 0xc58156fae4d81306U,
  0x90f3e80915e4f5edU, 0xd80e08d965eb31c6U, 0xd4f6d5121ecdeda7U, 0xced14cad6f8095dU,
  0xf5201edbf8fe0ed8U, 0x11022409ed0c12edU, 0xa7ffef8fbf71312U, 0x131ef8eb15e928fcU,
  0xe0e0f8fbfbe7f1f0U, 0x41c6ed0a06095ff7U, 0x617f818ef13faddU, 0xe8210d26d6efb5f9U,
  0x1d81d510feea0cdbU, 0xfcec01040605e9e2U, 0xfd26130e21dbea01U, 0xe8020003270b0ef5U,
  0x140a02f1fd23fc20U, 0xd505f21babf8ef11U, 0x400f7f1e11a01f4U, 0xf5e90c0fee0810ecU,
  0xdfe905f020ef13f0U, 0x1e8c3d50ff49e16U, 0xde8cff5b010d8101U, 0x1cbe81901bfa803U,
  0x16f8c9e40223ecceU, 0x20afb4017bba943U, 0xc008f0beec1f3338U, 0x1fff0491ef052d6eU,
  0xd92c08fcfa0be742U, 0xfc063b05fa03fffeU, 0x3e9ff01e0f81510U, 0x19ecde150d7ff92eU,
  0xe17390e0c2b03f5U, 0xcf1044e9080912f0U, 0x2feb34fdf3faf028U, 0xd9373605fb1333eaU,
  0xf92fef0c1a202231U, 0xf829651ac0d87f13U, 0xbfc33cbdfd0350fU, 0x3724d0ee14569b32U,
  0xc3f6f3ff064003d2U, 0xaade11c2065110e6U, 0x6e2ff7e80dd0dbe4U, 0xecdb4e45da0d3b23U,
  0x814020fee81db41cU, 0xb1eeaff0cf5f127U, 0xeb209ffa192cdedaU, 0xd0d120cdcc1fbf9U,
  0xcc1a45323c1c01e3U, 0x91ade051233da03U, 0x2a1a07d0c0074fecU, 0x190fe33235e71e1cU,
  0xdfde709fbf4fd07U, 0x6efb6eeaf80de1eeU, 0xfaf020f5e9ebd12eU, 0x15b91825141bf9deU,
  0xdff4fb816d0a371eU, 0x1306eddc1e27ea04U, 0xcf0fe31cd6dceca9U, 0xd9edff3db7f3f1f0U,
  0x3f3fb1502030c04U, 0x81126fdff7f0bf4U, 0x4dd710eff60400e8U, 0xf015f106f408f6f4U,
  0xfe16f054f9040406U, 0xf9fb20f60be6f900U, 0xf9000cd0fce9f7fdU, 0xafff604eedcfcf9U,
  0x130533fc27d9f240U, 0xd7051c07f9ea0741U, 0xdfc0ea0aece9e10bU, 0xd973f9ebf8280a33U,
  0x21d40cdf05f305d9U, 0x210de9efac00e102U, 0xfbe907e77fd8087dU, 0x9e3ff0e12090625U,
  0xe0010af716d2dcf5U, 0x2330d2effffd06fbU, 0xff15ffa5e9320b0aU, 0x1215ff0f370efdfcU,
  0x1ef4152d030bf607U, 0x508ec1c1309127fU, 0xfdffee0512ef110dU, 0x82210ed05f1de1bU,
  0x707fc0cfafc0606U, 0x5f901170802fe00U, 0xb03060206040301U, 0x903f607020a0d04U,
  0xf30601fc05050202U, 0xf612f5fafdff0dfcU, 0xfe020103fff0f5fdU, 0x81fe0ef82e060003U,
  0x26fa22f41b10cff4U, 0xf204ebfd123ad2f8U, 0x1bfa0ffdc1f4d231U, 0x1438c110141ef711U,
  0xfcec45ec7f0b01e5U, 0xa1bdd0031030afaU, 0x1917e20afe1c17e9U, 0x10fa211a08f2071dU,
  0x905edfffc79f6f8U, 0x381090df80800faU, 0xfffefef71d4efd00U, 0xfe0605f817da04ffU,
  0xf4ff02fbfc110904U, 0x20fdf6e8e1eff919U, 0xfffef80de82900f8U, 0x2effe14fcfb071eU,
  0xf0ebe7f700001624U, 0xd4f4fcfe08faf326U, 0x1104e51706d1f7f3U, 0xeafa1955e7f7f40dU,
  0x121ae8100a097f16U, 0xff0409311414e7d5U, 0xfb021bf9f6f603d6U, 0x211121d020215f4U,
  0x80a1a3a2a09f301U, 0x50522f70378fb0aU, 0xe9fa16fff6040aebU, 0x51206fc090bf203U,
  0xf904fe420bf9ffe8U, 0xf1ff04f7f8ea05faU, 0x10e1fb81f3f21107U, 0xf1013cfef92402U,
  0xeff0f91aef09f90cU, 0x80a2c0405fa08U, 0x10f50907f802fa11U, 0xfc14f1fe01fc3bf5U,
  0xfff0fcf30301fc00U, 0xfffde50003f000fcU, 0x3d8061006fffa11U, 0xc4e303027f090403U,
  0xedd614fafc8a0817U, 0x54223e44003df1fU, 0x8d8c760cd81e71cU, 0xdb1a24dbb8d7dd24U,
  0x524da03ee380013U, 0xdf021737e0fba3a7U, 0x4cfe91100b3e8e3U, 0xf7be15f0e51316ceU,
  0xc6030fe406fcfcf7U, 0xafe01f807dc03f4U, 0x1dfdeef52ffd0114U, 0xfdfdf60205f21700U,
  0xf1f4fb1b81f6f511U, 0xfcff13170806ebf5U, 0xf60d010dfa10f3e3U, 0xfdfaf408f9cf0dfbU,
  0xedf518371d03faebU, 0xfdff0a00e9ebfaeaU, 0x81f8fdfa0107ff06U, 0x1a02ff02090a08feU,
  0x90314e1f7060007U, 0xfbfaf2f80bed0af0U, 0x3f80402ffe70af1U, 0xfafd0b29fdfc0508U,
  0x504cca62df0f6ebU, 0x3f7f9c9f3e719f9U, 0x390def07effe1928U, 0x3f766f4eff7020aU,
  0xc04caee7f06fd1cU, 0x2ef2f000f810f701U, 0xf506f047f721c1f8U, 0x130b05e2dcf3f804U,
  0xe6047f59fdf7150eU, 0xdfeb40271a40f5fbU, 0xddbcbd3200ff8f3U, 0xfaf846fafbd301feU,
  0xd1e7b81fabdfe021U, 0xe1e0e6060701e2d2U, 0x1138eb9bef1df4d5U, 0xf0ebe434efea50f8U,
  0xffd2323fd01faf4U, 0x81ecdefafefc1df1U, 0xbf9f8f7e4ff5df5U, 0x1dd628061307feedU,
  0xb1e1fa8a50fa932fU, 0xf0f1e1f43235fa06U, 0xddef09fbf008fdc1U, 0xefe61019d0ca00f6U,
  0xf113080103e50408U, 0x90fe8fb01071005U, 0xfff5f9d00e7f1201U, 0xf2ff0314d8f20c11U,
  0x11306fd07f8fef2U, 0x1b0ff0e0fcf50d2cU, 0xfff7ec05270d0008U, 0x603fcfa07fef83eU,
  0xddfb84ac2026f3f3U, 0x81eaf9e3e7d60e06U, 0x45d351ee407f533U, 0x1d78ee6feec10f5U,
  0xedf6450a3305d1e5U, 0xf0719f21b103627U, 0xafad96a261819fbU, 0x181420ef06bbbae5U,
  0x94305b640ebe3e7U, 0xf0cd107f0016e31dU, 0xebed4c08b425e50bU, 0xdfeed41c00fda939U,
  0xedd003f40a4005c3U, 0xf4176e283738f815U, 0x76f509df1a2a1934U, 0x39e3dd3d14530c19U,
  0xe7010907910105fdU, 0x3ff020a0b1415feU, 0x15fe05060803149fU, 0x7010c0800061305U,
  0x40401fcec0cffeaU, 0xf50dfd02f4f50708U, 0xfd06fdf402f20b07U, 0xe9ee0008057f060cU,
  0xe8fef0ea15ec1fcdU, 0x10edf2f8f9f7dcdfU, 0x17f4b90123f4f7f5U, 0xbe00060e120bf0c1U,
  0xf17b1ae516fa0907U, 0xda29c705e706fd1dU, 0x7f100c2b40f916d8U, 0xab5f00fd519f708U,
  0xfa097ff4e016120dU, 0x8ffecddf307f4d3U, 0x25280305d8ede4c2U, 0xdbfb922e9f1f11aU,
  0xcf11231f18ce0d3cU, 0xfcef13d81df23e03U, 0xe6060d01f5ff07edU, 0xf913f4e71b0aaaf9U,
  0x4df1362e0202ca03U, 0xf7fcf9effbdaea3aU, 0xde300010f504f4e7U, 0x38f00f0a0f0ac5f6U,
  0xcfce5268128fcebU, 0xf611d1254c1e241bU, 0x6be2bc4044a1026U, 0x14e0f18bfed22efaU,
  0xfce5eeec12f611f9U, 0xfff62d0e11d64f03U, 0xecdf3e712f13bd3U, 0xdeef71000fd05d8U,
  0x2004812507f6fd0fU, 0xe8dc680a1a17e2eaU, 0xeaff0fe5171da9cfU, 0xf70e0803fbfd25f5U,
  0x32c271f070107U, 0xfd06fce3f900U, 0x81f9f303ff040bf4U, 0xfc050b0305fc09f9U,
  0x3fdf1fefa0612U, 0x70a0ff202eef907U, 0x7e0fff317f205f9U, 0x7fdf90cf31d0ef7U,
  0xf9f60211bedc06a6U, 0x3062fd070d1f0bcbU, 0xeb3cffd127e710f4U, 0x2c81dcd51fdceaceU,
  0xc000161315153d4dU, 0xb6eef61364121627U, 0xf2fc131bb859f6d3U, 0xfce7e9ddebcd0ecbU,
  0x5be46e7fe5011bfaU, 0xfec3749fc31141eU, 0xedf019e7faf811e9U, 0x12ea30ec13d3e3ebU,
  0xdaf2caf4f4f4051dU, 0xfaf8e20a10eccdf3U, 0xf314e4c60a21edc9U, 0xd4e8f4e6d3e51bd9U,
  0xf402e627f6010efcU, 0xfd0111faf4001600U, 0xfcf534e9330b1b0cU, 0xd011f8fbf0f61cf8U,
  0x9160bf510f60adcU, 0xf4e003f5e181e6e8U, 0xe9f5fb04f1e806f8U, 0x1ff1612e90508fdU,
  0xbf9dfef030003fcU, 0xf9fce4fe0801fbfeU, 0x2f2f901fbfff6f3U, 0xf9080dfcfe040402U,
  0x3fce27ffa021fU, 0x2bfaf9f2f3f2f603U, 0xfd0cfd07f6f800eaU, 0x60ff4fef61cf9ffU,
  0x10d2e31704ffec12U, 0xb050f1df819f711U, 0xe5e07f09e0fa04f5U, 0x32f9f802ffe60f0cU,
  0x10c0c19011605eeU, 0x104e9f9fbfef60aU, 0x38cefaf8faec0a02U, 0xf1a6250f15ee1d10U,
  0x81f404d4db090712U, 0xff05f1fb14dcf11bU, 0x7deccee5efaf201U, 0xf923d5000bfb05fdU,
  0xe8f0ff069af6061eU, 0xfffef611f7ebebeaU, 0xeb13f806e9040dd4U, 0xfe050c1413f7e8f8U,
  0xeefd0e18f9fd00fdU, 0x3f7033f04e81400U, 0x4105fdf40dfb0dcfU, 0x6fb1bf103001c02U,
  0xfa12d70601ff0813U, 0x2fdf0f4f5f914f4U, 0x10ee01f200e8052eU, 0xd3fbe2ec197f0902U,
  0x1f42be702022745U, 0xedfceb05f9ebf22fU, 0x1381010002fd06eaU, 0xebfe0fe401d7ef08U,
  0xfb08dbf9fee617f6U, 0xfe26f00df931ca06U, 0xedf4f6111935fe13U, 0xf12ea1ffc02edU,
  0xfc112400fc1003U, 0xf6fffa1afcdb0506U, 0x8101f9fb04fdf319U, 0x403fdff02fff805U,
  0x3effef00400fe06U, 0xfafcf8fc04fcfafaU, 0xfafe01fffcfb00fcU, 0xeafd080e0bec04ffU,
  0xc111627e7041ebeU, 0x2122d1716f446a8U, 0xee29bbdb27fb3ca2U, 0x2dc92b7f00ff1a0dU,
  0xa6dec92236fbed35U, 0xf9a430157e0663d0U, 0x210f01fbc418e9c8U, 0xe8d72543fa1efc0dU,
  0x556f9010f2e0b0eU, 0x100af306f9f32212U, 0x6cfc7f017f51af2U, 0x3ce6dd081d20291bU,
  0xcefc070b262ed502U, 0xb4ee12f67f2cf7e4U, 0x1d04f60a3408c4e6U, 0xe54aeae9eb17fc2bU,
  0x4fa181005fffa01U, 0xff030408feee12f9U, 0xa0202fed8041513U, 0xf8f97f00f8fd0105U,
  0xfefeff05f4fa03feU, 0x407f3f7f209f0feU, 0x5ff0900eef9cff1U, 0x4fc0c0aeb0e0f04U,
  0xfcf2de05f0100dfbU, 0xcf20003fd01fe0bU, 0xf8f70cfe091325edU, 0x2050a7f0f0df8e6U,
  0x908000e0103eb10U, 0xfd0601f4f30a0010U, 0x203fcf90601060bU, 0xfe0e0711f70d19fdU,
  0x27f9e70f13edf90bU, 0x13f920fcf21d1125U, 0xfee2f6eae7010001U, 0xbe87fe6f909f605U,
  0x18f3132005f900e0U, 0x171ade0a1aeae7deU, 0xeb160e25e022a301U, 0xed10061cd9de0ff8U,
  0xd0fea03fd7ff1ffU, 0xf1b40107f30bf9fcU, 0x305e8fc0f06f400U, 0x130afeff0420fb12U,
  0xd9effc0802f1f5f8U, 0x5040d18ecf803ffU, 0x15080601fd0afcebU, 0x4071f0401faf1e7U,
  0x81f721062406fdf1U, 0x20301fb2efcff0cU, 0x9f9b7ef3718de15U, 0x9310f21ecd6f401U,
  0x11320a38ee09dab9U, 0xbfe2e514f50dfafaU, 0xdbe61a15e04b000aU, 0xd435f53315fbf8e2U,
  0x27f24543050642f3U, 0x252e40230c0c41f4U, 0x11051ec0b2c3f10U, 0x37cfe112cccd44aeU,
  0xdb44ee2ae9b9ea20U, 0x7fe0f71544d5ecdbU, 0xfe16dd1acaf5ec19U, 0x4ccc023e9fdddf4U,
  0x15f57f6ace1af2ebU, 0xf810271ded2dfc00U, 0xb206e5edf300f3f0U, 0x12f870fa08e23af9U,
  0xc04e02214f60710U, 0x3ff0340c21eed1e3U, 0xec01e7dae536d3d0U, 0xf0f40135392718fcU,
  0x513c07e9f42f2946U, 0xff2b0a3fd9e7fd59U, 0xfedb0d03e1c60324U, 0x1218de083f2b5e29U,
  0xfb7f1f02df660bd6U, 0xcc34d9f8254329faU, 0xef09fcf230f123f6U, 0x1214bbab09e22a3fU,
  0x32017f15c10af6ffU, 0xf503f512180ced0fU, 0xd20de0ce90ce6d5U, 0x1a2cd60afd022efbU,
  0xf8f01a110ae906feU, 0x240def22051afd00U, 0x7fd0cfbf154140dU, 0xf01710f909ecf9fdU,
  0x13fb11d102067ff4U, 0xe30ad8bc4100f2fdU, 0xec1bfa122506e4f9U, 0xe1201ef4f421fbf7U,
  0xe2bcb0101d1f0f3U, 0xbcbe3f00a110909U, 0xe9fa0affd6e6191dU, 0xf1fc30b2f00ccdcU,
  0xe619f60be1fae23cU, 0x31ed3339721a8f49U, 0xe3dfe4f8cfde980fU, 0x23f2dc140c266018U,
  0x4f612517fd4c2314U, 0xee7fea140800defeU, 0x93f1d0c10e37df10U, 0x840870f1bdac5dfU,
  0x813305a9130a0b1bU, 0x142402d3f509da30U, 0x183a1dece8f41803U, 0x38f9e9c8162ce9fcU,
  0x135f3ecf514fdb7U, 0xf7022a000c1e1af0U, 0x4e06024adaff35cfU, 0xfe5338665024b215U,
  0xdf0f60def1c0ac2U, 0xfc100dd601fd7fbfU, 0xffddd1e0531f9U, 0x49f704efff5c02f2U,
  0xdcf10e1ef8dee004U, 0x8e8f6f6260222edU, 0xf001f808070012f6U, 0x3e5ea190ef9dc00U,
  0x4e067f6ccff5f9fdU, 0xe9edf1fe1827fe0aU, 0xf5f6ea01d2ffffecU, 0xe2e8ed01030c2b01U,
  0xdcf91ff450d4fa3fU, 0x1800cd1722f8df04U, 0xfb0c18da012bf3ebU, 0xd7e2f5ec03cf24f7U,
  0x1d17100907fe347fU, 0x12f3faf2f104e863U, 0xccc120018eee1f5U, 0xa803e719f6333b66U,
  0x3034f050fa536f2U, 0x35e159d4d7013ffdU, 0x38cffe22e6e451eeU, 0x82a1b1b3b12111aU,
  0xfe2d12d605067fefU, 0x1113e30504f03d06U, 0x12d20b04e3fc10efU, 0xa4feece3fe18fae0U,
  0x9192d050914ffe1U, 0xe335e603f7b3f71bU, 0x5f2f717031fbecdU, 0xdcd5b32bebfcf716U,
  0xff041b1a07fe08eeU, 0x101220a097f00eeU, 0x460fe8f11bfbfdfaU, 0xef512dc10f5d506U,
  0x6f9f224ccf7fee7U, 0x3f3010b13f4fff4U, 0xf31af2bbec0bf6e5U, 0xf701fc2afed10e07U,
  0x3ea8ac1d1a311c0dU, 0xf1c9f0fa1806d8feU, 0xec13061801d5e707U, 0x83c1ad952fd0de8U,
  0x45f1f2f5d97fea57U, 0x9cf7f3ff85049f46U, 0x702ec05b169ccb2U, 0xcdfe240e03350ca3U,
  0xea061efdfbfa0921U, 0xfdfbfa0ff3090b18U, 0x9030cfa17230104U, 0x1ed30108eb7c0b1dU,
  0xceeb13f10d81f9e9U, 0x121def00fe0bfcf5U, 0xe2f9040054d90314U, 0x7e9e8fa04ff07afU,
  0x15d4c91e0c010d1eU, 0x2f6f1f61606eb09U, 0xfeff1a06f8bbfdfdU, 0x30304ff442100e6U,
  0x24eafbf3f838ff4cU, 0xcb1bfa168102df0dU, 0xf6f9ec06ea21f6c1U, 0xe213fb21d40d028dU,
  0xddf7230581fd05dbU, 0xea0adfdb360bd9f9U, 0xff9af0036ffd0d1U, 0x1a1ea104f4fd34f8U,
  0xdcdedcf07bdb116fU, 0x6f091f2213d2e1efU, 0xd102e4fbdd2010c7U, 0x50ee3041aecfafaU,
  0xf9062e291c02f6edU, 0xff050e17fbdbfcfeU, 0x810a11f4f800f90cU, 0x915f005f50af6U,
  0xfd03fbd8e701fa10U, 0x8fdee010106f3f3U, 0x8f40710f8fef7e4U, 0xf3040613fbf8fdfaU,
  0xf906810f0604fef6U, 0xfcf70f0bfcfafb10U, 0xe90d28feecfe0a0cU, 0xede9e9ff0615e117U,
  0x300fee2e81f0fd5U, 0xd3fcf6ea17001106U, 0x290319f50adb0600U, 0xf5f11201fe29210fU,
  0x109eae7fcfaf706U, 0xfe01f506e88112efU, 0xcafffa07ed0107f7U, 0x505020efcf009e8U,
  0xf6ff00f4e007f505U, 0xfaf80204ee18fefeU, 0x5f4f848f8fbf100U, 0xfbf3fbde0100fbfaU,
  0x29e54a47eefc1adbU, 0x54fff336fa0927dbU, 0xdbe8eef708fd3ee9U, 0x1e83dfefce7f7eaU,
  0xe6fbc7fce4e11922U, 0xd1c0b1013ffe8f6U, 0x1f051381fc26edfaU, 0xefe3ef35fdfe36feU,
  0xe6ecff18dcf2e835U, 0xbe4ea2afc2b2043U, 0x28bf11d503ed1ff8U, 0xc4d2fe150be6fef3U,
  0x1fd312d845f30258U, 0xec1d12e10909c6e0U, 0xf5097f0e01ebffcfU, 0xf9eb33f719032540U,
  0x7f811f71df9fcfaU, 0xf6f2faff7f02feU, 0x640806040b060912U, 0x15ff0ffa06f9ecfcU,
  0xf6faf13cdcfa04edU, 0xf9f4010b01f6f1ffU, 0xf022fba2020dfbf9U, 0xfcfff11600e3fe07U,
  0x17ff2809d5ede8f2U, 0x24ef70d3f14a600fU, 0xfb0d28f5d3f10418U, 0x8d307f021f27f501U,
  0xf9e12814f1031bbcU, 0xb7d2dc17de1407fdU, 0x30dae4df31270ce9U, 0xfcd9f402ea041c33U,
  0xf4149f0e10601f2U, 0xff7f8df07dfe327U, 0xd04c80bcb0dc9e1U, 0x97fbdf10a06e8e7U,
  0x111a31f02ffddaf3U, 0x62fe0006dfd4da09U, 0xfd9ffe728c61817U, 0x10209cc14f3140bU,
  0xf81724ff10efe22fU, 0x1f0f1fffbeddbd6U, 0xffe52700da0ce523U, 0x47f203f7cdf27fU,
  0x2a0bfdece9f708f8U, 0x301afdfcc601b107U, 0xe8d613fa38f70425U, 0x1604ff030af80515U,
  0xbf4ea03190803c6U, 0x51cedfcf3f8e0c2U, 0x121122f8ef09faeaU, 0x1e7ffc08fa23e5d4U,
  0x22001ef8fdfe1212U, 0x26f7fd08f21bd7fbU, 0xe52bf8fd18e802f0U, 0xfe07ed2806f51ee5U,
  0x2fdf12f4dc05291bU, 0xea00fbf53af6f732U, 0x1bf908e8ceef14f0U, 0x1002bfd92d0626caU,
  0x519100a2d0a067fU, 0x210a15f7e41f110fU, 0xf6eef71caa32f713U, 0xea2def08fe11f9dfU,
  0x14fe040efe2aedffU, 0x6da1002e809060cU, 0xfb0c09040898eefcU, 0xefecfed79dd90aefU,
  0xddeaf6020a25f5f8U, 0x10a097f12fbf3f7U, 0xff07030a0ccf0f11U, 0xfdf3f204ecf2fa0aU,
  0x3273edfdde8b9f1U, 0x26cce9f519d6f50aU, 0xff15f11b0de8f83cU, 0xd7e600340f30feffU,
  0xebae2afee1f00abdU, 0x99f2813528fa2112U, 0xed201633056f1a17U, 0xe6ff03eee7c716faU,
  0x180c26ddd2f01b11U, 0x26fc1006eae00619U, 0xf5dae3f4e7f8d9e2U, 0xd77feeeb06080332U,
  0x1912f8fde4e2a8d1U, 0x3d000becb22505f0U, 0xf901feea66f0fa31U, 0xa1007f40aef1c00U,
  0xe6041c0ad3fd0507U, 0xfe070010fe0316fdU, 0xf140702030311c0U, 0x8062ef405fd1502U,
  0xfb05e612e20008faU, 0xf5fa000b0004fdfbU, 0xfd0bf50bef0c01e9U, 0xf609fd15ff7f00fcU,
  0x9fb675942f41914U, 0xa8fd1efb1d263719U, 0xace3d1e925e6f635U, 0xf40246ef13f119fcU,
  0xe306e414a2eed815U, 0xd0e8effe17f8e2f3U, 0x10ef1ec1813800b6U, 0xd4ed0870e8b73edcU,
  0x4d3c5f28e7e4d91aU, 0x8da085ff60715f9U, 0xea0195be58d70801U, 0xc3415a0b347f0249U,
  0xf858df1d10f8f4ebU, 0x123d06f3c3f531deU, 0x3a63ddbba2cd05b2U, 0xc3de14211afb0e0eU,
  0xb52b810cf8120927U, 0x4fb0ec7201f0734U, 0xdfdd02e2f2b6f01fU, 0x18d60cf4541105ffU,
  0x655e2153509f28dU, 0xca1aeaf607fccef2U, 0x2007d1f835f52ab2U, 0xf4de7df35227e80cU,
  0xf7fb0608f803f313U, 0xfe0506f9010ffcU, 0x2004fee9f401030fU, 0xe501f0dd02f0f103U,
  0xeaed0e19e8ef0b0bU, 0xf7e7fbfcdbf7f2f6U, 0xf6098114100000e2U, 0xfdf40bf6fe071609U,
  0xe90614f9ce04ff03U, 0x20305fb0bf1f301U, 0x1807fa030803ffb6U, 0x10c210005faff05U,
  0xfaffef0bd703ffd9U, 0xf302fc110307fbfbU, 0xfa0d0806f61bf8f7U, 0xfe0801fff87f1003U,
  0x14d302edf4038123U, 0xf205f51b0411001eU, 0xffeef5fe2605f010U, 0x2f06faf4fefa4108U,
  0xff5711feff01f90aU, 0xfe2e32f3f1f605fdU, 0xd837ef07eff81512U, 0xf20026f1da00e106U,
  0x421fffffbcb9U, 0x657600009985U, 0xfffffb98fffffb7fU, 0xffff00f1ffffdad9U,
  0xffffe75800002bb5U, 0xffffe63900004de7U, 0xb2d0000a4fcU, 0xb6e50000e4c1U,
  0xffffefc90000a777U, 0x6c8fffff7401U, 0x6aa4fffffb24U, 0x151dffffff23U,
  0x1033300000e4bU, 0xf79400005b93U, 0xcd6dffffe44dU, 0xffffd2ad000006b0U,
  0xffffb73bffff8effU, 0xffffe07c00003d70U, 0x9d200002763U, 0xfffff972fffff642U,
  0x6340ffffc6c0U, 0xf00800005e2dU, 0x4019ffff8718U, 0x129d0001293cU,
  0x386f0000b4e4U, 0x2c3d00000796U, 0xffffef2f0000ca91U, 0xffffcca400000aa0U,
  0xffffca78ffffeaccU, 0xffffd71500006927U, 0x82f70001815dU, 0x160c00007d91U,
  0xae910000a2ebU, 0x175ce000015c2U, 0x91f6ffffc035U, 0x4120000009f7U,
  0x1ede0000ebecU, 0xd0fb000082b3U, 0x5ad6000048baU, 0x8a71fffff367U,
  0x137f0000c212U, 0x884f000073aaU, 0xfffff4c800001db5U, 0xfffff53900000ba7U,
  0xfffffe4dffffe9bdU, 0xba5000057ddU, 0xffffa98c00000fffU, 0x4b69ffff8be2U,
  0x2f4b00004f8fU, 0xfffff98500007536U, 0x7162ffffacddU, 0x5c2900003142U,
  0x3cc900003bd7U, 0x6efa00003d52U, 0x84eb0000b108U, 0x345700001c13U,
  0x9a6300001e81U, 0x8e6800009142U, 0xffffd533ffffc9c7U, 0x58eb0000a453U,
  0x54d0001015cU, 0x5c9e000139b3U, 0x907d00016c56U, 0xffffdaa60000408aU,
  0xf9ff2c04e91eebf2U, 0xfa1deafd00130100U, 0x1207f41afefffd13U, 0xf8df0e093104f1f7U,
  0xf30919fa141a1d14U, 0xef0307ee1cf311fdU, 0x1dff7f1af301f401U, 0x1d1816d306f6fe14U,
  0xf80de6ff1e0ceadaU, 0x8e80903fe0b2cecU, 0x6fc0608fffd181bU, 0xf3180cf300f9fae3U,
  0xfff80b0a1400040bU, 0xf404011605e40cfdU, 0xe1edf7021efef511U, 0x1cf6f801fc0b19feU,
  0xf61a7ff0e77f01cfU, 0xedb7d92fea30fdebU, 0xe1edf6fbffff21e3U, 0xb81fe067ff0e8fcU,
  0xff1a7fe3f9351022U, 0x85100b137fab58e2U, 0x7fdcd9e9efffeff2U, 0x7f7f7fd022f40030U,
  0xdffe910de7260ff5U, 0xfbf618cee8f47fe8U, 0x5e50d0ff3f1fef5U, 0xf7fd240500eacd7fU,
  0xf9d5202c7f04fd08U, 0x190df3f9d4887f0fU, 0x8135e50b7fd5d0efU, 0x26ffcdecffef7ffcU,
  0xf9f92705131ce6f9U, 0xf6ee0701f60d0100U, 0x6fd1de601faeefbU, 0xfde8fc0e1104fdebU,
  0x170e19f3f21ced0aU, 0xfc080bed11b91efaU, 0x1f00aaf2f1f8f804U, 0x1d16191b0610fb13U,
  0xf903e2fcf8fa082fU, 0x42012010d0119efU, 0x3000a030afc0beeU, 0xf3e704fffff60827U,
  0x2f2130f10000508U, 0xfbe3fef2ffe70701U, 0xe8fcf6061cfa1bfdU, 0x1e0cfe0504021a00U,
  0xfc1bf2fac2ea06fcU, 0xeb04c2f7e81aefe9U, 0xc17817f7fd50e7fU, 0xe5ff7f06cf7feed9U,
  0x861eebe27f180034U, 0x81260a0f03b222ebU, 0xfde1087ff4ece9fcU, 0xf6f80a152e93d32aU,
  0xf31c02197f229495U, 0xe78111d7e97f38f1U, 0x6fdb0cf29004fd7fU, 0xef7f248101ed170fU,
  0x81e51922f8b50711U, 0xf213ed7fe2faf319U, 0x2aed00dbe4e37fU, 0x1d81fffffb7ffafaU,
  0x7f7fb87f7fa07f7fU, 0x7f7faa7f817f7f7fU, 0x8181f1f28f817fbdU, 0x7f20897fb1a9817fU,
  0xf17fc07fef7f7f7fU, 0x9e7f7f7fec817f81U, 0xdd81abaf7f7f8181U, 0xc3e1e87f7ff17f7fU,
  0x7f7ff77f857f7ff8U, 0x81067fb1a0d7317fU, 0x817f7f90ed8181f8U, 0x81ed7f7f7f7f8549U,
  0x1bc27f7feb81817fU, 0x83717ff8ba079a7fU, 0x1a7f7f7f937f81aeU, 0x7f087f7f8187dd95U,
  0xf4f2d3f4f3f4f6f7U, 0xe70cfe08eb17eefaU, 0x7217295fcdd06f6U, 0xe6fbf805fcddf7e2U,
  0x7f17e8e08a21051eU, 0x930f0b0805db0ef4U, 0x4ef12e5ee94ebffU, 0xf4f8030b217fec10U,
  0xef0efa1bff1bec7fU, 0xef7822e27fa61df5U, 0xee007f47f09ec90U, 0xf78318fa01eacf3eU,
  0x72e60b15fada1010U, 0xf681e584e4f4f217U, 0xf420ec05ecea11dbU, 0x1272faf60800f87fU,
  0xf90ef0ffeaf5f4f9U, 0xf4ee3900fa0cfef9U, 0xea04ef1a0ff7f218U, 0xfa1d1213da0affe8U,
  0xf503f9f9161ef408U, 0xe90707f3e1d528feU, 0xed049111f0fcf2fcU, 0xf4ede80b0cedf709U,
  0xf1f917f911f6ecdcU, 0x4f4061e060f0ef6U, 0xfaf704fbfdfd0d19U, 0xfe1c02f2fef44eedU,
  0xf6170e11ea0a070bU, 0x1900fe12101df904U, 0x25f7f509f9fd1f16U, 0x17ebf400080ff00aU,
  0x90dd8eaeaddfadcU, 0xdbda7f1aec0cf7e4U, 0xc7f603faf6ec0fd8U, 0xff73f30ae811f603U,
  0xf629c5d5fb1e1113U, 0x8f17111e979f21e8U, 0x99e022f8e0150704U, 0xb39b89d11bf8031aU,
  0xe8f17f08fc1d0af6U, 0xf2f60d7ff2f133eeU, 0xedd4027ff6f8f8fcU, 0x1fe1f0501ed7febU,
  0xf37f02129c070b10U, 0x7f10edf97f7ff116U, 0x6e29edfe07e74cecU, 0x1cfef9e408e9a3f5U,
  0xf8fce30114f8ea06U, 0xeb0c1c07070dfbfeU, 0xf9fb19ecfff2fef9U, 0xf310fa10faf704f6U,
  0x1409f8f6f0131f04U, 0xfb070bf2e9de2102U, 0xec005affebeef701U, 0xf2f4ecf00213011aU,
  0xf0f91ffcfa080529U, 0x1b0f1906fc00f2U, 0xfff902fc110106e6U, 0xfaec0301fcf307ccU,
  0xd1b100aec060a10U, 0x13e6fcef141dfa06U, 0x13f4f410f4fa28faU, 0xf16f7010606eb06U,
  0x2759fffffcc1U, 0x475200001ed2U, 0x3e200000343U, 0x1311fffff323U,
  0x123500003c4eU, 0x7b52ffffeb03U, 0xfffff5dcffffd185U, 0x165effffee75U,
  0xffffd6a9fffff48eU, 0xfffffb2b0001004aU, 0xfffffd08000003cfU, 0xcf75000033e3U,
  0x8e1efffffd66U, 0x1ae00003517U, 0xfffffcfc000007e8U, 0xffffeebafffffff1U,
  0xfffff0b3ffffd4ceU, 0x4fffffc844U, 0x1f800003f84U, 0x14cffffb88aU,
  0xbc300008fa1U, 0xfffffede00010dcdU, 0xffff9600ffffdfe1U, 0x12f0cffffe691U,
  0xb7c60000300dU, 0x14b7ffffffe6U, 0x470600002117U, 0x2f20000696bU,
  0xffffe9f6ffffb7ddU, 0xffffc89500000018U, 0xffffff07ffffe0c0U, 0xfffffe5400000159U,
  0x1a700002434U, 0x216dffffaf66U, 0x159ffffe56fU, 0x275f000001e0U,
  0xcf100001c3fU, 0xb75000001d1U, 0xffffb5d300000148U, 0x65b7ffffffdfU,
  0x27f90000000dU, 0xa000075deU, 0xfffffd2700001b53U, 0x35f200000503U,
  0xfffff89500004d2dU, 0xffffedc200001847U, 0xffffc28f00000984U, 0xad67000003e2U,
  0x4b2afffff2ceU, 0x43000005182U, 0xfffffd4fffffdca8U, 0xfffff74800000b7eU,
  0xffffffbfffffc8b9U, 0x545fffffe2dU, 0x221fffffffaeU, 0xfffff3a5000002e2U,
  0xc6e000005aaU, 0xffffff3400001a4fU, 0x1cafffffd9a7U, 0x420ffffb861U,
  0x11dfffffe91U, 0x438afffffe34U, 0xfffff234ffffe7f5U, 0xffffd3f40000022eU,
  0xaff80d5310031905U, 0xf4ef21ed1ce8e846U, 0x2bbddfccbc0505f2U, 0xf337ac1d0cfa43ceU,
  0xe2071716dc1f20ccU, 0xa333e040a9aee1fU, 0xd13d21f3efbcec7fU, 0x191ce5ff099f0c2bU,
  0xfce520c4ae2bcb07U, 0x3fb108f2d3d108e9U, 0x18af22e4e0e317cdU, 0xfff732a45de9f5e2U,
  0xe003f138221f2c16U, 0xfca2fdf62409f219U, 0xf500efe8161a18ebU, 0x63f82d0e059a11b8U,
  0xf4fef301f304edffU, 0x10102f8040003fdU, 0x70001f6fafefb08U, 0xf50800f60b02f30bU,
  0xf7f1f0fdf6fd0505U, 0x2fdfb0104fe0300U, 0xfff8f30621e8fdfaU, 0x10ff04060808f301U,
  0x40400f80ff9fd0cU, 0x2ecf605f417f6f8U, 0x504f8f1c5f6f906U, 0xaf90b0300faffeeU,
  0xfdf5f8f203020613U, 0xfcfc01efff1201fbU, 0x4fff4050d00fe81U, 0x7f1fffd0bfaff05U,
  0xeee6fb22fe0bc40fU, 0x51f8f904e8fcc333U, 0x49fb111411e7f614U, 0x80f0703fbfd120cU,
  0xfa130d3702deef27U, 0xc4c4de03ebfec7U, 0x30f2f9fec31ddddeU, 0xdad3f5f3e10a00ddU,
  0x1cf20f8105d713ffU, 0xd90fe8f00c020f01U, 0x7131cdcf4ccf1d6U, 0xeb01cc04f03bfb25U,
  0x70417f1ede6fedcU, 0xfb02180ff4fd0bc8U, 0x12000f1dfae03012U, 0xe7f80fefe4f604f4U,
  0x1ebffa09ffd6cdU, 0x7c794ee1209fa10U, 0x3050ef1052b1a26U, 0x1cf10800ca09ed06U,
  0xfee7ed21f521240dU, 0xfaf8f1249ef61b13U, 0xd810fd07040a14eaU, 0x1709f6dc1e13142bU,
  0x53ee10f802160a02U, 0xf0e8b71304faefU, 0x1ca8f8e6fefc0df6U, 0xf9f7cf1a2b15a6e6U,
  0x7f6f217f9a0f7e4U, 0xa711fdf51917811eU, 0xd511f31904dee708U, 0x1efae4e6fb220318U,
  0xfdfdfffb02fef00aU, 0x1f9fbfa02faf6f9U, 0xee0d02e3f1fb06ecU, 0x2010106fc0207feU,
  0x21801fb0608fb08U, 0xc05fcf10506fbf2U, 0xf9fcf50303f2fafeU, 0xf60eeffd03f50e00U,
  0x70a00f90cfd082cU, 0xf06f908f8a80412U, 0x8ef020241f40415U, 0xfa81f43c0507f80cU,
  0x7fb01feff0aff02U, 0x5d708260a0804feU, 0xf0f90a0d07f40e0bU, 0xaf50300f5f3f606U,
  0xb3bbf00f82df021U, 0xfe461b46c7ee2f10U, 0x355ea1319f67034U, 0x560d3d38687ff387U,
  0xf2050b13eb86ed22U, 0x1207f1371618fdfbU, 0x17fbf9cbefce3204U, 0xe6110b01f5f76a40U,
  0xa021517f8e7b92aU, 0x2fde22f8a0ef0517U, 0xd6ece4ccd40115fcU, 0xf4d6e52ef8fe1b35U,
  0x1b36b044d91317feU, 0xf8b32409ddff08dbU, 0xe0e80403fcd1eb1eU, 0xf4f22bfa3f4ecd3aU,
  0xf6e0e90dfcf31807U, 0x22e403ec09fe0ef3U, 0x1dfd0ae0eaf0f501U, 0xe31dabf80c15f307U,
  0xc503040fc3fbfd23U, 0x2b0f0ae7ffef0808U, 0xf6f6f9ee13dffffaU, 0x11002f619ae0011U,
  0x110affe2abfeb0ddU, 0x1b8112fddbd9fd2aU, 0xec14fdf6d5eafebdU, 0xf9d912bb22160af1U,
  0x2fe030cfa12f804U, 0xfd1109c509200305U, 0xff04fa060ef102d9U, 0x11ba0ff6eacafafaU,
  0xfcce1bd02208201aU, 0xd009065aca0a22e0U, 0x833f9d90424070aU, 0xbecefd913060d2eU,
  0xd80d22f1e2c5ef1cU, 0x2ebc8dc321d14edU, 0x21110b00fddd2a1cU, 0xf61700fef8fc10cfU,
  0xd206f5140be0f304U, 0x20ca0be0efd22aeeU, 0xe1de7f0cc8d603d6U, 0x230603fe090707edU,
  0xcf9033f03d61206U, 0xfd2ef5e206ffd7d0U, 0xdf9efeb0ff31206U, 0x20f4f64818111807U,
  0xfefdb4f6e911ffffU, 0x10172705ff0aeaf6U, 0xa1118fac6050f0bU, 0xfd06ff14570ff6faU,
  0x120007fff2ec070bU, 0xb05eff30ffbef06U, 0xf607de810ff103ebU, 0xb06fd00ff0204f5U,
  0xf90809f83802e40cU, 0xfefbf804c6fc15e8U, 0x9efe40bf70febU, 0x20fe8ffe512f9f6U,
  0xf80806fc040f0112U, 0xff6f502f502f301U, 0x190cfef900f0f1f5U, 0x4fd170607f7023cU,
  0x13cafae84b0b1100U, 0xd74a8ce3d723c52eU, 0x18cc1ee4f5e74eb6U, 0x810dd5fed5523028U,
  0xa0e190ed5eb4102U, 0x20703e104d1d527U, 0x120bb8200712dff9U, 0xfa26fed1060de300U,
  0x931521c601ebe800U, 0x604fd0826f70124U, 0xf2db091709f820ecU, 0xf7fc19e51639460fU,
  0xfaff0dd9e5e2e1eeU, 0xf415f1fbfe181ebbU, 0x6e733e11bf7ebf9U, 0xbfc0d00d4c610ceU,
  0xfa0219fb1b11d30cU, 0xdfc10fff513f5fdU, 0x3fcfcf1f6de0d00U, 0x6f0fdeb18db1cfcU,
  0xe902ff1cf30108fdU, 0xe81f05fa260ef4fbU, 0x8106e8fa360f04e4U, 0xabf0f6fe10fa0405U,
  0x13fffff9f5f31cffU, 0xf8e00c36ecf0ed09U, 0x6e1f9e3eb080edaU, 0x20cf30510190110U,
  0xfc00f505b3e50005U, 0xf106f0f6f2eff8f6U, 0xe07fa01f6f62700U, 0xe3edf2fff90cf4f7U,
  0x70807ee00150516U, 0xfb100000040cfd09U, 0xfc0afa0d0a0802fdU, 0x70e0104fdfb0c00U,
  0xe09e5eef6ff050eU, 0x30af606fcfff301U, 0xe050a0ed305f3fbU, 0x212190ffe1503fbU,
  0xf10a06fc06010004U, 0x160b0df7f20ff812U, 0xff00ebf4fcfa1507U, 0xf3ebf706fc0bfdfbU,
  0xfc7ffefd1b0e01fdU, 0xdc070703ecfbfd01U, 0x1b04fc0003f1f41cU, 0x2fe0701f6180703U,
  0xc5d1fb81110ecc2aU, 0x2e52d14fddfd919U, 0x1b2d0cff11031332U, 0xf20016d609d500feU,
  0x1b0d10e206e8cff0U, 0xe6b1d1ed030a39e4U, 0xf8d1050de93ed8eeU, 0xf1eaf903d11a16f3U,
  0xf12810ed26042bf0U, 0xfcf5f425040b2016U, 0x141c17de01ebf8edU, 0xf71c0a581710212bU,
  0xe9f6e1d8f6f336f9U, 0x2c502020eccaf4fdU, 0xf604ece900b5ec13U, 0xf2faee1aad5cfb13U,
  0x5306c927ee8105d4U, 0xdde411e3fb38deb9U, 0x4f9dd12e0fb43f5U, 0xd9daf612ea042ef5U,
  0x80b0a16040cec26U, 0x2027f7140bf312daU, 0x5bc7d6f1180deef1U, 0xd9b991bd10fc1901U,
  0xf8f91af30d1308f5U, 0x63219eeea092f43U, 0xf1e416e110f207faU, 0x4ee0f0c3557ce22U,
  0xf8c920293efc3a16U, 0xe413fa3499ef1cd8U, 0x9540e50ff4e7d80fU, 0xe1121a8fde1f01e9U,
  0xfbfc0ddef8fe020dU, 0xfe0201fff308f8f7U, 0xfd18edbb05f7ff02U, 0xfe0e08fd0810e90bU,
  0x872102029e02fb0eU, 0xfc02ef0ffdeff50aU, 0xfa0407120a07f0U, 0xc0112fb0881fb01U,
  0x8fa0af60bfbfa12U, 0x68d1101ec9ff1f8U, 0x80012f98806fa92U, 0x18b204051ee204fdU,
  0xf805120e03f9fd07U, 0x5f7f89d0c0a010aU, 0xa08030214ecf6f3U, 0xf97fc09e71a0afeU,
  0xc9f30009e3f8f80aU, 0x100206f2f8fd0f78U, 0x2af70dea20150ff1U, 0xfff681f50703fdffU,
  0x96ea041c04f3fb05U, 0xf7f9e303ce2207U, 0x3060607f7d3f0faU, 0x908090d02e800f9U,
  0x2902f3d120fce203U, 0x401e60904ddf60dU, 0xfa121bf2e8e98bd2U, 0xae50905fef9f8e1U,
  0xfd0ae2fb01fa20f9U, 0x4f102d910060401U, 0xe031613140d0406U, 0xfa2b15efdfeef808U,
  0x2af2da1302120715U, 0xcdaed0eebf4140eU, 0x180de705f9c417fdU, 0x12080e04c805032cU,
  0xf6d8d63609eaea09U, 0xe4080201c51a0eeaU, 0x22fdbae30203c3f3U, 0xb7f981e112f015f1U,
  0xfd06ddef09ea0bf8U, 0x8fd18fd0eff1828U, 0xf20ded260afffff8U, 0xfeee0011213e0a18U,
  0xd634fd14d0df15f8U, 0x170107ea22da04e2U, 0x3924ff04e0081af5U, 0xd1fd0ad9fdefe7d8U,
  0xd3dcee26161120ddU, 0x720c041eee090e20U, 0x2ed70a0d1ddad4eaU, 0xf3f9f107bb0f19f7U,
  0xdae9dce5ccf6d4f4U, 0x32ffe22cb205f119U, 0x33061a0e112ede22U, 0xed3301e7e2ff32e5U,
  0xe819f0e5e4df1102U, 0x4f0bf8c0e5164e00U, 0xf9e4e8251be955eeU, 0xe807fa27bc4d081cU,
  0xe7f1f510fffaea11U, 0x2de6012f1d07c8e1U, 0x2dca0cdbd6ddfc02U, 0x4c070a7fb2d02c19U,
  0xcfda0055044c046bU, 0x45da16fd09fee003U, 0x19fd05fc0a1016dbU, 0xde11e80ef4c2e9ecU,
  0x411811127facd0cU, 0x7c9f6fcbdfb0337U, 0xf1e8f5e93af32a14U, 0x24090ae3e9d83dffU,
  0x21110ccffc21e2faU, 0x1b1817250dc913d0U, 0x33194a1df0ffed15U, 0xfb12381257d03af3U,
  0x17485305bc13ea2cU, 0x1507de27cb121ffdU, 0xc21437ef0d051bc8U, 0x37009c16fdd0d1d6U,
  0x11f01cb6eee6dc04U, 0xce060102dffe01edU, 0x1c0608e6ff0004U, 0xed0df3fc0904c90dU,
  0xff490002f4dc0aU, 0x13d7f1caed1966ccU, 0xf5a4da10041105d6U, 0x270bf7ffe1e8e802U,
  0x20ddfd080bea0202U, 0xff017f16db0b1aU, 0x100d1aed05def2f5U, 0x27f2ddfd291a1c11U,
  0xb0fffd214e70f0eU, 0xf25c4ede0f41beaU, 0xeeff13d200f00fe9U, 0xf401ede6cc2ef90cU,
  0xf0e3fe29dd11e714U, 0x41fcf4f2f1e6ee01U, 0x16b9cbfface40ce3U, 0xde4bbfedc0dbf8d5U,
  0xe4d80b34dff7daedU, 0xc20d2ec2e1baf12U, 0x2cf5f8041ccf04d1U, 0x27414312fdc8ede8U,
  0xdc4c00cde9ffd801U, 0xffeb00f606f03933U, 0xf82dfd02f381e0dfU, 0x3df2b19e50e09e3U,
  0xb410ec36f633f4d3U, 0x33e704e10a2121e0U, 0x3b02f5ed0eed2bdbU, 0x2cca0c23dfb012b3U,
  0xf8ee141937d71edeU, 0x27f507c62b8c1d17U, 0xea2209b60f26f8e3U, 0xd2cfed001ac436b4U,
  0xb812c901cd23ff2fU, 0x5c223df0ec13f716U, 0x3cedfcd71728121eU, 0xc8dc81b530c25b0eU,
  0x5321f2facb2714faU, 0xdca502c6ced3e609U, 0xdbfa37dbd908f4afU, 0xf8ec5223472a1d25U,
  0xe1ef0f34ee2ad3d5U, 0xdde01fd5b4f4c0f8U, 0xdfb353a282abff1U, 0x51df04efdde4d0faU,
  0xdbda0245f707e80eU, 0x214ee1c7c1a19fdU, 0xc0d1f503fb2ecafcU, 0x163606a5fee2fbb1U,
  0xe8f501faeb45c003U, 0x3b42520003151902U, 0xf5d108edfc07db1aU, 0xc20f6e8f807e97fU,
  0x1be60928dc65f512U, 0xcce90df5fbe68a18U, 0x10ee39f7e1ce23deU, 0x2c140ae3faeadfe4U,
  0xd50142250df2eb0dU, 0xf3da0cfdfc080a77U, 0xe7fff0fb71160604U, 0xdeefe76d26320df3U,
  0x704d6612cd7ace3U, 0xc408f5d20fd81a3bU, 0x7c5fd03e62e12f6U, 0xfe041fdd1b261dU,
  0xfdf1211c02ee02f3U, 0x1357d431d2d7f335U, 0xb02d7ec11c3183cU, 0x1e3e290e411a15e9U,
  0x4c81fa0bdf19f42bU, 0xdcfb9d90124f113U, 0xc6b2c90dabdf5fU, 0xb2442ecf51cf6ddU,
  0x202fe30bea034a3dU, 0x19d227252ffc0eedU, 0xdc1141f61b340232U, 0x200ce8f93e17ffd6U,
  0xf80efb27fe10a907U, 0xaaf915f40ce4cc1bU, 0xc0afffcf81116f5U, 0xf9f6ea16edd6e5fcU,
  0xa0cfbf003d9f012U, 0xfad5b0f0efdef31aU, 0xf7dbd5f0f5fc033dU, 0xe5f106fe15e804d7U,
  0x202cf20e1509ecfcU, 0x20081bf414fcecf5U, 0x67ff4a4f8f00820U, 0xfc163ef83a01f31eU,
  0x40445f1fb057021U, 0x1ef51b2e09f0fddeU, 0xff3252faf6f8f300U, 0x20002f0408fafbe2U,
  0xb2a331111f208f7U, 0xfc0d77edbee8f91eU, 0x11ecde00fc8d39d3U, 0x6e907343813fe39U,
  0xdd1eeda044e1bf9U, 0xebeff2f3dc0cdbfbU, 0xf90d0af9022ff2U, 0x4f0fe28f718153eU,
  0xe7db07ec16dcfff1U, 0xfbf600eefefe0239U, 0x8f306ebfb040101U, 0xedf6200fecf57fffU,
  0xfef7f5f8fb14e120U, 0x3070404e701dc52U, 0xf41ee51700e52105U, 0xe905fce7fd0ef507U,
  0x1cf8d438d82b2442U, 0xe437e32c32487404U, 0xf0e6af16033c0209U, 0x5080618e365f7d0U,
  0xf11c1be7181b0800U, 0x27500217d51bee01U, 0xf3dddeecda201420U, 0x2b3c2f1bd7ea3f0fU,
  0x3cd6032fd740f41eU, 0x254bfed91215ff5eU, 0x2f17284ff4daf304U, 0xc41150ef27e0c3dfU,
  0xbe16322d132bf249U, 0x21ea36f178171cfaU, 0x2003e4ae12e42cfdU, 0x271081410bb12c2aU,
  0x501f51303fd050dU, 0xbf5f6d903f20ffbU, 0xf140d0d11fdf8f6U, 0xfb0e07ef25edf7f7U,
  0x3fd120601e8e203U, 0x1b0d00fb03f402fcU, 0xff03fd1e06e40df8U, 0x1e0606110427fb0aU,
  0x210704f543f8fa7fU, 0xa08f7f118050323U, 0x1b090e00f9f7e806U, 0xf20aff0004e41ce8U,
  0x5f5f4fbf900f709U, 0xf40ad9fa06f400U, 0x904fb050d01f1c2U, 0xd0602f402ed05ebU,
  0xa808037c23e2b901U, 0x5504d0e9eff6e149U, 0xb9db1b1329fa3225U, 0x18f619fe37090000U,
  0xfe09f343dcfafab7U, 0x18dce71a1cda1ad5U, 0x23f4cfb1add11f2U, 0x2d1b1a29d4fa13f5U,
  0xe5011191e1e7be14U, 0xe431bd1ff82003a4U, 0xfab01cf01bd4f5eaU, 0xe300140ff27fdacdU,
  0xfb182edf1bf6dafbU, 0xe1f744f133dbe2cfU, 0x92dddfd33abaf01U, 0xc504e805c0d7f30fU,
  0xff58f80d0b12c00fU, 0xebd11f0a2e120dfdU, 0x1df3e90af7d4c1e1U, 0xe00c01f81c3d07f6U,
  0xff201902025885eaU, 0xd3fef7d90603c2fcU, 0xe6db53ecf00a230bU, 0x270b1e57040b12acU,
  0xd110df4f781e610U, 0xe510f7f6eb0ad6f3U, 0xcffc0d4016fbf92aU, 0xfd1122f7d61f02efU,
  0x1ffe0de41e32f316U, 0xfee9f311091c01d6U, 0x916f403ee2a0508U, 0xfc1d19fe15f119efU,
  0xe528c80dfb00d107U, 0xcac28eaecfa0007U, 0x1014cc04e6fad3d1U, 0xfc11dd083fec0444U,
  0xff05011cfc43db08U, 0xfafb28e5ef00030dU, 0x100519110dc8f10dU, 0x16070e32fcfc0299U,
  0x21703f7e9dce923U, 0xfffef4142a1d00f0U, 0x3ebf1fb02070211U, 0xf814f107e40581fbU,
  0xda0e08e0051308feU, 0x1a000e0311fff518U, 0x204ecd952fbfdU, 0x1105010d06f507a1U,
  0xf0052127dff80ecdU, 0xbee1d960be40f24U, 0x1717fcd1a4e100e4U, 0xba2584c918fd23f1U,
  0xfcd5f6f1f8db0e22U, 0xab0720e143f9c20fU, 0xf49031ecdfbc1dbU, 0xf9fff5cee80bcad9U,
  0xbef204c1d106020dU, 0xdbffe3b009065606U, 0xfad3810b22d540efU, 0xf5f3fbafdb08ead2U,
  0xe3f42683dd1ad008U, 0xfbec47d218f2e20dU, 0x4116034bd0ff25dfU, 0x35ff17f716d00c2cU,
  0xeec0f6e2efeb040aU, 0x1ab4d6feeef2e722U, 0x807f6fcf4eb9cf7U, 0x1404fb0511081628U,
  0xf9e1040505181c07U, 0xf8faececf901da0bU, 0xcd2f70af6fcf1U, 0x50d084af9f11bc0U,
  0xdc100ad3f4d921e0U, 0x2f9fbfae9ef15edU, 0x12f4fbfdfbee00e5U, 0xf8eff3fe07033003U,
  0xdcf5fdfcf2fde7ecU, 0x1314e816fef103eaU, 0x287fffeef1f4e6f2U, 0xfdf11ef40b110ffbU,
  0xf5c3951cf2050b01U, 0x25defded4c0f4ce3U, 0xdcf257f32f32cc7fU, 0x2d09ebb4a1071d0cU,
  0xec37ee24df04dbd6U, 0x3b1ee555524147c9U, 0xfe61f50806c6c9U, 0xf200cbd604e503U,
  0xe1f3f117024cfa11U, 0xe2fe0a1206073eU, 0xf2c74324e5ee06ebU, 0x1dda31e72411c8d8U,
  0x26fa1001fee5d9e3U, 0x33f416eeebf53c68U, 0x9cc771d55000f22U, 0x19ea04e21b040a1bU,
  0x35f4de32e9fdf1fcU, 0xfbddf635f471efeeU, 0x23ee2dff2cbff01dU, 0xfdf8e93bd23017fdU,
  0x1ac2ef5422f30111U, 0x12ebfd00fe09150eU, 0xdb2e3beef8eee4e5U, 0xd7b381eaf3f903ebU,
  0xddfd07c7f1e8e8f8U, 0x7ef07031e1a6d5eU, 0xc3e7032f0b42f80eU, 0xcd11030029290f03U,
  0x221f1fe4c9e4e90cU, 0xd711373d20b42314U, 0xcebf2b484230903U, 0x11111bb429d2ef1eU,
  0x6f1c5a909e61521U, 0xfcefdf0b052710dbU, 0x1e32f60609edf8c2U, 0xd8d4fa06cc17b8faU,
  0x105e3effcefeca8U, 0xf70bf7dc02140ddfU, 0xf5bdeb05fc0d2116U, 0xea020adfefe400f0U,
  0xcff1ebf7ee0ced06U, 0x3d0326f6f5f63dc2U, 0xc0511d3e0d6252dU, 0x8106fcebcf2eeef5U,
  0xf3fb5e0edb152008U, 0xe1ebca070bfc0dfcU, 0xe6ea0a00ed17ec08U, 0xe3f901341a09cc03U,
  0x1d09fbedb137e1ffU, 0x1de6f62ef9e8b03cU, 0x45e70cd9d910f2eeU, 0x240d0533e7d1a916U,
  0xd211f40cfef20104U, 0x12b8dffa0e5637fbU, 0xeb0e1103eae0fd25U, 0xdbf5ccf5a0d7decdU,
  0xf6fc091008f5e604U, 0x3cb321c713e5f423U, 0xe85423fbddf7a9cdU, 0x77e4ca37220e1b07U,
  0x3e359c2d1094902U, 0x82ee5cef7fafbe5U, 0xec1e03f409f4d8f2U, 0xf4e7efde81ead4d2U,
  0xf7190728d6edd738U, 0x74efed010e19ce08U, 0x1102f4ffeffceee2U, 0xe111fef708ff1ae8U,
  0x10b9ec24101013ebU, 0x5040b23d1e9df03U, 0xffcfa09f0130edfU, 0xdcf5c6fae50e0714U,
  0x10f40ea8f81b19fdU, 0xbfe4edd8e7fd1fe8U, 0xf71523ecf5da12dbU, 0x1601faefc01cfb16U,
  0xf7082f1de1139481U, 0xf60111e6f3130b14U, 0x54f4cef934c7fafaU, 0xc3ef240933eff7fbU,
  0x26af5eaff0fe8f1U, 0xe3b9023e02e0eeU, 0xee1106f72617a407U, 0xe8000b16da0b1336U,
  0xf916e120028187fcU, 0x5f4f0f920061e0bU, 0x12ef61f809092ef0U, 0xfd100126f0fb1243U,
  0x2d1bf1f0ffb2fcfdU, 0xe20cefe5f0020af7U, 0xea120f2d0deaf609U, 0xa0eeaf7e42f220aU,
  0xfbf1f912f9ecd510U, 0x2ce8e60afcf9e8efU, 0x2a39fde6ea07effbU, 0x510f90df9f3fa2dU,
  0xf8054cfcfa0a09f7U, 0x1f5e7050003f3f8U, 0xfcf114fa1e050804U, 0xfffa010db9fa06f3U,
  0xfb01fffdfff9f105U, 0xf008efee09f8f2fcU, 0xfaf7e87ffcf601f2U, 0x1020dfdf9fcfcU,
  0xf70b06f8dafae3f0U, 0x301f8f33708fcfdU, 0xb0f03e8ff0303ebU, 0x3deea00fc0409f0U,
  0x30002f00303fe11U, 0xff0ef0f4f50efbfaU, 0x2212f9f202e6e70fU, 0xf0d10010b13fee4U,
  0xfce9fe0915fe0af6U, 0x4cba04f1ef09ec0aU, 0xeaf1de1802161a14U, 0x2013f2fa0efccd0cU,
  0x18ed27140ef1e7e1U, 0xe13cb23f881e30fU, 0xe041add8e6d7d015U, 0x4026dbd0211ff5f3U,
  0xdd182ae4f9e6e50bU, 0x351cb41d0b2aff81U, 0xfe8dd7ca18dc1e04U, 0xd927fcf6172c01c5U,
  0xd000eedf21d412f7U, 0xebf21cfa23330ae7U, 0xef3003d217d8050cU, 0xab2df2fe43f339d0U,
  0xb6eec6d1f30236f4U, 0x4ce7001e0a16111bU, 0x514e70f440ce214U, 0x26df0e36d2f229feU,
  0x11f7ff190ff5e22bU, 0x101506ca13e9cceeU, 0x8fc00dc2cfecf12U, 0xdbd7d4e2ddf52e00U,
  0xbf1ae8ed06f413fdU, 0xb14e50c1105eb19U, 0xfb1b240ae7fb05fbU, 0x33ff03ffd67f1308U,
  0xf114edc61316ed22U, 0x1509eaf7ccdfeb15U, 0xd8db8afeef16fef2U, 0x804021bfb0fc730U,
  0xfce5ec3325e8fa29U, 0xe8fded02fa44110bU, 0x1c1f030300cf06e3U, 0xf2b2f2e4f0f724eaU,
  0xd725074ac806e812U, 0x3fceb12164f4a10U, 0xa06e50618e204ceU, 0xd3bb0ae9e3150135U,
  0x187fcbe3ea0fda06U, 0xbef12513efef522bU, 0x24dee6260bd0dae0U, 0x20e22fdc02fb14f9U,
  0xfbf637fead0417d3U, 0x13f41f0b18dbd71dU, 0xfdcf44f011060dU, 0x24e40bf6f527dddaU,
  0xdffbdcccfe0beaedU, 0xbf102fbfc44ed22U, 0x54b9f105e5f51f0cU, 0x1033915d5ec10e4U,
  0x151f06100dccfcefU, 0xf9cbe6ebea00ffU, 0xed11e9140e05290cU, 0x919ffedf3ed0ae6U,
  0xfeda03d63a01f3f1U, 0x10b05dce8fb2bb8U, 0xe1ff81e102c625feU, 0xe300cf1b2b2cf112U,
  0x4040028fdec05f4U, 0xef01e70e011c01c0U, 0x32ff548d4f70408U, 0x30f0bf2e92affe2U,
  0x81eccec816f23e46U, 0x34040031e5ffb00eU, 0x1555ed0f0138f8ffU, 0xf6e9f92d08e9dbfeU,
  0xd61a05ebf1e6de4fU, 0xbf88ef9d112d23ccU, 0x130301f530d770a0U, 0xc09c7ef8401f6e4U,
  0xf3ba003f0ecd9b05U, 0x305b612d3fa03b9U, 0xe934fbcde5a0f0d3U, 0xe4c7ef2973eef6d9U,
  0xebe430f404e91a9dU, 0x3447e5e1fde00efcU, 0x1426073440110e06U, 0xe6c765dfdae005d0U,
  0x19ed01b30ecdffbfU, 0x39250cbd13dc0217U, 0x15dc16f9feebf8ddU, 0xf715ebff00f1f6f2U,
  0xb06bdc9000bfce9U, 0xff20d5aed4120221U, 0xdb2a0305fefe1b0fU, 0xdfed0922fffadf01U,
  0x1504c3ebfb0b0cf9U, 0xfbdd06d8def8dd02U, 0xbc1cf981eab704fbU, 0x2b0a0e0bc7120417U,
  0x21800e468213015U, 0x2d0cf215cdf1251bU, 0xd00f619d3503c06U, 0xf8ff6de6f8ee2cf4U,
  0xe80d22dbf1f6e2f0U, 0xdf144b0f112aefe0U, 0xf9ece40dcbe00ce9U, 0xf512df0ef413e20dU,
  0x1ddc15ff1e7ffe08U, 0xdd1b00e0f6fdfe08U, 0xdf3de1ae6fdeb21U, 0x1c01282fe41ffabdU,
  0xf1fd06f7facefd00U, 0xf0c0c152bf410f7U, 0x6044d0c29f0e702U, 0x70addf5e3fbce1bU,
  0xdefc00df0ced27fcU, 0x1310e3242326efecU, 0xf71dfcea1fdb49eeU, 0xf613d51a0003f925U,
  0xfb14fc0928fc041cU, 0x8fffae1fb1afef7U, 0xeef80627fff004e4U, 0xf8f1f6e0f822211cU,
  0x13030be7fdf31911U, 0xf0f9ff0012ee15e9U, 0xfaf11bf18bfdf7d3U, 0xf718eef5f4d808fcU,
  0xf71007e811f00bf9U, 0x60ef8f90911f72bU, 0xf30f17f6181fef1fU, 0x1d1f1109c9e7120dU,
  0x86413e80a071bd1U, 0xa093b0f81e213e7U, 0xdde2f8eefd1fecfbU, 0xe807dd02170a05f9U,
  0xffd2faf20c91ffebU, 0x46c20218ec320223U, 0x1728fd0108080f16U, 0xdf81115f530cc28U,
  0xfdfc7b1eefebcd39U, 0x24e4cf12f5f80fd7U, 0xd80302f02ef6a4daU, 0x461e4cd5ceea08f3U,
  0xcbdbfada1de206ffU, 0x27f6138429083122U, 0xa91d0a20d31207f4U, 0xcad8c7467f1a18eaU,
  0xd3cbfe05f6ecf2ecU, 0xf422debda5eb22dbU, 0x4efa32ed16b4caf4U, 0xe5dd45ee05f22deeU,
  0x11afd8f5fc0fff0dU, 0x155cf8f6acf2c409U, 0xffff0f0a351236fcU, 0x3004fa1efbeb01c1U,
  0xfc0fe0fa024550eeU, 0xfeec04011808160fU, 0xfbe481f00e1310ecU, 0xa05f0caf0ffe09fU,
  0xfb10f6eff72df202U, 0xe3f5f0e0190e182dU, 0x190fff280412eff7U, 0x3f1fe05e431d5efU,
  0x150bfbf0f6f7f1ecU, 0xfeae7f905f7ea02U, 0xda844ece7f0feefU, 0xfdf3fa00e9f4f41cU,
  0xb75bc7c5d60f1605U, 0x270ed23432081905U, 0x221ed4caf9fa1d10U, 0xfee3fd36cb044fe1U,
  0xff0cdcfbfe5f4506U, 0xf2f87f14f5e50032U, 0xfe2f071016ff1a08U, 0xdfe40205c50de766U,
  0xe0e5fc31e0641516U, 0x2def1ef2f8d71813U, 0x120e08d4de7ce5b9U, 0xf7e32e0503f5dc25U,
  0xea11fbf9fe34fd19U, 0xf428e9d7feedec16U, 0x1229d00bf4f0f608U, 0x31f6ddf8acf00522U,
  0x34ef0546f210eafeU, 0xe4fdf60707fdef8aU, 0x430affe8fd00f2faU, 0x100a55f9fdefcf03U,
  0x8e01cb161b06e5d4U, 0x26c90931ef0305d9U, 0xf8103f2e818f5f4U, 0xee0ecfeec603f202U,
  0xeefef2db01f0ecfbU, 0xff516f909130105U, 0xff6cec19fae518f8U, 0x35f20dff0c6104f8U,
  0x3ef1cd80101f916U, 0x1bf7eee200edf3f9U, 0xfdf4d7f903be2beaU, 0xfc0a16e8b8f10df5U,
  0x1914f51d0efaa0dcU, 0x3abc0600d010ebecU, 0x22fcee1981e813aeU, 0xc90e0718fcfedd04U,
  0xfc260924fbd1060aU, 0x2afdfe02abe9da2fU, 0x1621cbff29e3ea1aU, 0xa08139a2e2adcc5U,
  0x462ef5f412d5be00U, 0xfd3106eff014dac3U, 0xcb6b1d42bfe14f9U, 0xf8f8afe91bf40321U,
  0x2d0af1ebf6ea2bb9U, 0xbdfd1c0af501cacfU, 0xde240518a4e0090eU, 0x13170209f522eba4U,
  0xcbd9283929fc020eU, 0xe304e034fdeacc0cU, 0x5026b09fe41259bU, 0xd2fcb0dbd9f24501U,
  0x1a31f912011c03ecU, 0xaf6f615f2eeab18U, 0xd72aef6803e1cd4eU, 0xff190ad50bebe2ebU,
  0x3dd417f881f6142eU, 0xbef2bce340e1116U, 0x540218d5e8f01ff5U, 0x6e40a0e53432bf8U,
  0xccebfbd41dd80424U, 0xe9f7f7312f29f237U, 0x4d14f6dddecc0fcfU, 0x8083ffafae70ee6U,
  0xe002340004fbd6e2U, 0xf7912c2070fbfaf3U, 0x6cd43317081888eaU, 0x1a3b2ee9e4ede72fU,
  0xe2113fc0853d6f3U, 0xf7c8e9b7e60b2ed1U, 0xf0bc22060802df14U, 0xa0e2524dc1bdf96U,
  0x2bfff6ccfe810006U, 0xe91df114160ffeeeU, 0x8bf5f70403181f0aU, 0x8e1d02c1707e0f8U,
  0xee1b10011fdd1804U, 0xec02c71810fd1cf0U, 0xeb59f1d907ed050eU, 0xf0081c11fb23fc03U,
  0xfc09020505ece7fbU, 0x100b08ff0e7ff514U, 0x1205fefafeeef800U, 0xfd030a04f80812f1U,
  0xf0e90bfaec030614U, 0x15061aff1600ee1aU, 0xde00fdfa0ffbfd14U, 0x24e80a0212fdf704U,
  0xcf10e00ff0af203U, 0x5f5000bfa1417ffU, 0xfaf403df0e080affU, 0xf7f30f0204dbffeeU,
  0xf91e07ff1c04e93aU, 0xd3fd11f6fe02ff08U, 0x2f90ffefb28eb00U, 0x11fe091001f10102U,
  0x13463ee82b06a2f1U, 0x11263b81f80621e8U, 0xee1d3bfd051362e4U, 0xda071e821e54ed27U,
  0xeb150de707eb4831U, 0xef07f44d0c211d22U, 0xd10a1fd22fe9c9f7U, 0xf9e8f7331b06fdfbU,
  0xf8e406290bf606f7U, 0x1ced0d154727f5cbU, 0x3a04d6f0035f1e2cU, 0x4c17fa13af351ee7U,
  0x3cf5182302ed1024U, 0xf4051f0ab9e749e0U, 0x2a5cf03e336dca14U, 0x704e49fe2bbeff6U,
  0xb3fbf20ddd1ff407U, 0x60300fceff4f507U, 0x1c060f01ffee0c07U, 0x10f8dd0301e80112U,
  0x160ee81500ffece2U, 0x9f3eb0205ca1a0eU, 0x16e80b00f9010a07U, 0xce04eb01eef5fdf5U,
  0xf2e835e00af3fef9U, 0xfc02f8f9010e06ebU, 0xfe401f1909f1def3U, 0x1601fd1c05fd03c9U,
  0x5fd1302f2def7f1U, 0xa02eefcffa2f9efU, 0xf40708f6e604e500U, 0xfadfe9e406f781faU,
  0xd09e158e00dd4ceU, 0xf40d0f150e12f4ccU, 0xdf97cbb20bc713feU, 0x13a7ba3acc27e92bU,
  0xc620de21d01afa34U, 0x41edf039f76f3ef2U, 0xa2040ff4fee609feU, 0xdbb3810366c0f7d4U,
  0x110cd0f2da02ccffU, 0x35b1e6c9189ff237U, 0x1ae21006abe311aeU, 0xabbd03cefef3f933U,
  0xe3e5f2b1c1e13bb4U, 0xf5e516ccc5a5d7e7U, 0xe82f01f800ea0ebeU, 0x39c9dcbbbdc3be21U,
  0xb1bd0007f20fdd9aU, 0xd70f26efd450f1c6U, 0x1dee10fae5efcad4U, 0x226ed850089ed08U,
  0xe642f8f52201c5dbU, 0xfcd829e440d031d0U, 0x29cbf502ef025219U, 0xfe2e0af2ac06d92fU,
  0x66d4feacddfe22f0U, 0xe305fd2ac4ef1dc4U, 0x2c2c3dbbdbabcd17U, 0xde0daf230a812ae0U,
  0x311c6b1ef5aa0f18U, 0xc606ed281a23c2dcU, 0x54f0c307a5d212fbU, 0xbd032effaed0e3ceU,
  0xef4a0ddcf3ecb7c6U, 0x3c1504de28d6d001U, 0x561f0913f3f62d07U, 0x27e513140beb2121U,
  0xe90c312603f01c47U, 0x3ef4230adcd6edf3U, 0xc824a1020fc836d9U, 0x2d30419df36f304U,
  0x4caf1c52421e0feU, 0x290b0cee1a02fb0dU, 0x10ef13fdfbeab211U, 0xae700161c4501d0U,
  0xfcfbe7c90a1ef8feU, 0x7530e5fddfbde8d5U, 0x8155eafaf026ff05U, 0xfa0cf6def7ffc6f2U,
  0x4d9e5090905def8U, 0xf602eefb021404f2U, 0x1e2f5fff30a0404U, 0xdf120103007fe405U,
  0xf2f60207fb08f812U, 0xdf206f80cf71b0aU, 0xcfcf90303f90afeU, 0xfef806fc0c072312U,
  0xff2fafe052efb02U, 0xf00fcfb2bf6f6feU, 0xc5081ffffff902f3U, 0xcf513fe0efd0cf6U,
  0xfa010dfb17f4fe09U, 0xf7ff0a030d14f41fU, 0xfff8fb07011301f9U, 0xafeec08fcefecefU,
  0xd107e30e32f2c901U, 0xeddfdbd530fb0929U, 0xdae50d0a2d01281eU, 0x1abb0f0dee02fce0U,
  0x21161bdf240def28U, 0x2444e8d6f8ae1412U, 0xa0a09fc8ddfef3dU, 0x6f31c01092505fbU,
  0x4510faf716161c0cU, 0x27f1f317eff4fce5U, 0xe80c250bf0ccc91eU, 0xe6013710bdf7dbU,
  0xecebecea2013433fU, 0xafd4d0c3774ea26U, 0x4262b26e84dfc7fU, 0x1cfbfd001d4bf5e4U,
  0xfbfcfaf3f8f504U, 0xf3fdfefff10704e9U, 0x11fd01fd01eb0508U, 0xf8f1fcfe08f70c0dU,
  0x708ff14f706fff7U, 0xfafd0af2fffc0a07U, 0x8eef503fcf1f7f9U, 0xf803fcfafafd0b00U,
  0x5f1f8fd07f507ffU, 0xc07f41205f2e9fdU, 0xc260100fafd05fcU, 0x7e9f3071004117fU,
  0x706f10504f60608U, 0x90beefd0007f90eU, 0xf4fc10fcfe03f9ffU, 0xfbfb06f2fbec0507U,
  0x1b0ff83bd447f914U, 0xfe401520f51adc1aU, 0xfce2161bf4f313f2U, 0xe4131bfe137eff1eU,
  0xe6cefadf12eb2cc8U, 0xda1cc4ed4115f4ecU, 0x1803fff1f4f4cf2fU, 0xfe0c1a36c71827e8U,
  0xfcdd1a01e3ebdf02U, 0xb1bf0e02e07c716U, 0xa22a317ffcd629f8U, 0xd2d12f89e3027e2U,
  0x362009db0b4fea25U, 0xeffe07281a2132e6U, 0x46ff14e0660bf105U, 0xd600c6325ee7efe1U,
  0x1d10021ec3c1ebd7U, 0x2b1617f10cc7e91aU, 0x7ff222fa13bcf81cU, 0x222b4c22f2bce0fdU,
  0x4c401271cd2f7ebU, 0x10e6c90e35d1fe70U, 0x253bdffd4039d1d8U, 0xf5d6d01df5f13ed7U,
  0x10e617ef37f7f7f4U, 0x6e0710b5e41923f3U, 0x60626960427611dU, 0x31ea0ceccb46c9f3U,
  0x1306d419b2da9cdfU, 0x4edb12ea3e73f5dfU, 0x3c17278baf440d15U, 0x1bfa1e1e05191006U,
  0xf3f5fdfcfff5de05U, 0x1dfdfb10f402feebU, 0x1e7fcfe11fb0806U, 0xf614fceaf5fae9faU,
  0xfcc0aa390800f0beU, 0xbdffcf10b1505f0U, 0xc1e03fe7feffeeeU, 0xfe19eefc1de4fdfbU,
  0x11ff00edf5ebf3faU, 0xeef5e1f1f304eff7U, 0xe901f8091603bdfeU, 0x18060effeeee0002U,
  0xf1d612f601fafcf5U, 0x9f3bf09ff04fcebU, 0x4f70de7000c01c7U, 0xdfc060150e90602U,
  0x1824f94816e1e206U, 0xdde41469bf529c08U, 0x5801d6ed07a71e08U, 0xfb0a125b07e91607U,
  0xddbf0514ff0129cfU, 0xfb3f231effc2023cU, 0xe6efe8d915e3a904U, 0x1ef7f7e719cf1743U,
  0x3df15f318f0eafeU, 0x2af008f2f3e7290eU, 0x8031cf4dad710e7U, 0x45dfe30b2a2cd912U,
  0xf0152ce00ad9ec17U, 0x7eee1e611fde30cU, 0xf009178111f9f211U, 0xc0fc0dfbfe12efefU,
  0x10dbf50e0d05e6fcU, 0x1fe815810cd0b421U, 0x1cf61408fa1ff611U, 0xff0bfe87dada0efaU,
  0x17011503f3ffc234U, 0x281ee40a1df1fc0eU, 0xee12e9f40be3ccf8U, 0x11fa10defbfeea15U,
  0xfbf6f2e3f921e911U, 0xf4ec1f091506ed1eU, 0x2703d00cf2dce70cU, 0x310eafaef0f13ffU,
  0xf60af82321ffefe0U, 0xce73004e6021334U, 0x1df1e5553e09221bU, 0x23f617c00f01f4f4U,
  0x81e2e618e1fd0c08U, 0x21f8f800090ef510U, 0x130bf1fdfd17fbfdU, 0x11c01daeb01a9f6U,
  0xe706f40eff08eae9U, 0xdbdf6f4f1c614e6U, 0x21b5de08ecdd47faU, 0x17ff2106b3fcf905U,
  0x16dbfa1bfffde90aU, 0x23e718f1fed637fdU, 0x12610d1fbd7a101U, 0x48e1051411f8f81aU,
  0x6f624b1f1073e11U, 0xf92519fb0209f411U, 0xff0b1911f9f4f3efU, 0xf1ecfbe60751ece6U,
  0xcff146c2fa6afd1eU, 0xf70a31f6e4ee13fdU, 0x55393afb09f9fc1aU, 0xdd253bb62d39c4f8U,
  0xe8f40cf2fed9deedU, 0x3b6ebd252de1009U, 0xffc2ebebf837f4e8U, 0xf0e5fdcf13f512e0U,
  0xf22bd5d124f604e4U, 0xc6def55529092501U, 0xf50e0a3028eb01ffU, 0x802bb2f00de39b6U,
  0x1ff8f334d0e6e10bU, 0x3a1ee80f7f13d1dbU, 0xb901cc5a4d00c9d7U, 0x241be830d4ecedf0U,
  0xcedecffcebfe5e07U, 0xe2001603ef012a04U, 0x1019ff04f41ad0c4U, 0xe2fa1704c1f53b1aU,
  0x910ff1c08caef22U, 0x1dcaeee324f0345fU, 0xdc3b4a04ef050bf6U, 0xdcffd4db3219efb8U,
  0xfd10f819f5dce10cU, 0xadffc415de311ceaU, 0xd8d4fc0b2dc015fbU, 0xd1e16f1190e05e1U,
  0x2ee62bf1ffd8ab3eU, 0xe9fffa1200e729c0U, 0x26c67feaede8d70fU, 0x121207fefb04e6daU,
  0xfcb5e3fdf40a07e5U, 0xfb1a14fac1f3f1f8U, 0x3f1bfc0f06054d0bU, 0x1204041414ebfbe6U,
  0x10f1f9ed0f7f2ff4U, 0xf1e9e7eff2001c00U, 0xf302e2f0080bea12U, 0xf7f611f7f5feee86U,
  0x11fffdd9fd1800f0U, 0xf50cf4f006f411f9U, 0xe1f806ed0f14f31dU, 0x9fedef00114ecfaU,
  0x150c09fa06fdf8ecU, 0x404e5140b0ef0f4U, 0x7a30bfdead9f7feU, 0x12090ffee31b0305U,
  0xe024211610ff03faU, 0xe41310e5f8f208f7U, 0x1038180725d7dcdfU, 0x4d031f1a067b0633U,
  0x142bfce817f50df9U, 0xf9e824f317d8daffU, 0xe3020424ea1430eaU, 0xf8eadcfd0615da0dU,
  0x190a06ef0af018f0U, 0xf50bfce9d8ff01f0U, 0x81f91fc40534fc16U, 0xfafb0b13f8f4f8d5U,
  0x36f41dd60b0c2330U, 0x16fdfe06fe0ad112U, 0xf2d1de18ddcd0d07U, 0xf812f6fd0415f72eU,
  0xfbf7eff6f01b0100U, 0xf8f0fc0691f1eedeU, 0xfff442fa0bd6eeefU, 0xfa03fb4ff7daee2aU,
  0xee16f0b90ed20006U, 0x1217221eea4106d9U, 0xf3190ff6e7e02ecdU, 0xf40d11100ae715d6U,
  0xd812ff05fd81e805U, 0x15f90bd5030f0551U, 0x22202f05ec190608U, 0x26f83705a8fe0cecU,
  0x5edc58dfd848fd39U, 0xdae212eaf30d2322U, 0xed571230c90e622U, 0x35edf0261adc14feU,
  0x4cff50f29df02eaU, 0xe8dcf9ffffe4edd3U, 0xf21ed80af6eaf103U, 0x16edf1f2edde2904U,
  0xe9eeeae1df0ec625U, 0xdfe7fae8f71dd7efU, 0xf421d1cce60bfceeU, 0xdfe613cbf8f1f127U,
  0xf245f11af000fa15U, 0x6f5f206210e041cU, 0xa0518cbf7e41817U, 0xba021a0c1ce3e61fU,
  0xc9027f0809f5e820U, 0x50e2107dcf9040fU, 0x1900fe1ffa2ff111U, 0x220324f4edf8f0e5U,
  0xe8ec05e4f902e101U, 0x130211f5fa16f4U, 0x1c2d3e0b32f6292dU, 0xcfe7a1e05080624U,
  0x36d7f5e473e1e11aU, 0xe7e3dacb1a1211e3U, 0xed1cff05f763e8eaU, 0x2e0e903fd3f15ddU,
  0xd6f8f1e434f136f5U, 0xdbd5eebffd1c01daU, 0xd700fe0c22244058U, 0x253cf67f13f7fae1U,
  0x4efeef08e9e7dd12U, 0xf040d84af30403d5U, 0xff1f03e9fc07f441U, 0xdf26f5fd2862fcffU,
  0x40105f704f804edU, 0xcf08daf71f000fe6U, 0xf50714f1f1ea04f6U, 0xf11ddc0df811eef6U,
  0xffefd413f9f510f5U, 0xe17eff60714f417U, 0xfa29e9ff7fdf081fU, 0xfd17effa0dfceeefU,
  0xf6f80c08fb110216U, 0x33e5fcea0d3f1c0bU, 0xf2d71b16290de3f8U, 0x13ff0fdff5ebdfedU,
  0xfceb03ee194c30U, 0xebebb31ef90f1c0dU, 0x1d19feff0c0c13d7U, 0x17ed0ce913b72d08U,
  0xe815d510fef70962U, 0x20dc14d5fe141a22U, 0xdd18f00023e72e25U, 0xcb0dfb0ad671f505U,
  0x14f7fbfa0f13f211U, 0xfbee12f6ce000721U, 0xf10ae4f134e819c8U, 0xdddff90d0c7f28U,
  0x1022fdee1d072dedU, 0xe5e80a001c13df17U, 0xf0f3d0380b1b02ffU, 0xe00b0513f63601e5U,
  0xaf3e2d2f401ee1bU, 0xd20ef81c10033903U, 0xeef937671008f909U, 0x2cf694efe92ce106U,
  0x8338121418dc1503U, 0x85707024405b93fU, 0x4dfa6c07710c063fU, 0x19260e1f31e341e2U,
  0xfed21ef434f94410U, 0xb1f90b132ccdf7dcU, 0xbdc332a540ffcf9U, 0xd32af65edb20f808U,
  0xfc92bf5e7563b01U, 0xebdcbb32451c23c6U, 0xf2e313441337091eU, 0x4a17e102848417faU,
  0x6b02fbde1d15cbfdU, 0xe00821ff48df02faU, 0xeee80ca3dba526fcU, 0x811209e424143c4bU,
  0xc0cf101ec121635U, 0xe0306c7e80ce1eeU, 0xf8f71502e4e21eefU, 0x3d7f0f0f3cff31eU,
  0xf7fcfcf9f5e81d13U, 0xe7ff07e00208e5e6U, 0xeaff010205d42be3U, 0xe6e1d5e60e05e4eeU,
  0x170607ea07ecd8feU, 0xf2f2001af204df05U, 0x23fcec02f4f2d4f6U, 0x2afd1cf1810b1a09U,
  0x151df8c407151911U, 0x1df1fe11140106f5U, 0xeb0bde07c9f61313U, 0x12f5e8010adef3ecU,
  0xdcc2d5dbfff9d4fcU, 0xd1f01384ec2ab2f9U, 0x793ee726e930d6faU, 0x16f23d8cdeea0be5U,
  0xfaf8252d17f6b616U, 0x35c5fdc9131f35b9U, 0x90ad63cc04dd0deU, 0xfbd8dde8b66709f7U,
  0x16a0f9d705e15a18U, 0xc826e50bbdf00e2cU, 0xd32581ea12e58f1aU, 0xd715ac45581a190dU,
  0xb81fcff0d9fb03faU, 0xea4bd3f8ff1df1c5U, 0xfbdbe77be710ff1aU, 0xcd080a92b946f7e2U,
  0x2e905fc0604e1U, 0xdaedf70108f616f2U, 0xede0130508f9fc11U, 0x1ff0fc27eb0b1d26U,
  0xf81cf7dbf825fee2U, 0xef0203161539ebe0U, 0xd4f104fdff110deaU, 0xefaffec0ae51d1dU,
  0x18e4011b251334f2U, 0x3fe26ddf2f2f27fU, 0x6046414d411f8eeU, 0xe4ec160320f30debU,
  0x1304eccbe6a635c5U, 0x9f10fce04ea1022U, 0xf4ef18b718d909feU, 0x1fec042809f7021aU,
  0xc90b05aefadde660U, 0xff1a2622b0f5c714U, 0x2103befbd8cc500bU, 0x304ffb1ae5e8f9eaU,
  0xf3f93830bcb3d62cU, 0xd1b98ee6c9f19bf2U, 0x44ccd5fb1603c6e0U, 0x201565eb11d0dcccU,
  0xed2312a3fdb33a13U, 0x2ffbe74ffe024cd6U, 0xfbd8e4de05bd05d2U, 0xebdde6332b2a0f0dU,
  0xc01d03f5d229e9dfU, 0xef3ec1e1d9fa4581U, 0x4cf7ecbaf7cedcdcU, 0x10010c5f32246f2U,
  0x4f7160007f7e912U, 0xfd0b0ee5f9f6fffdU, 0xff2faede20603f8U, 0xf11704fcf2e9f703U,
  0xafd0df6fa090c01U, 0x1202fffd10fbf401U, 0xf7fdefdafe0f02f4U, 0x120503fd0eccedf2U,
  0x1603fffbc7fee881U, 0xfa11feecfae20e0cU, 0xf50814f1e4f8e9faU, 0xffe117e702e204ecU,
  0x14fbf901fc06fd11U, 0xa04fcd6ff0bf609U, 0x2fd09000efbec2cU, 0x15e9fffffc13fe17U,
  0xe6f1f91500f9feeeU, 0x15f804fbf409ff0dU, 0x1afc0309fcf407feU, 0xf8f804fcf9fb01U,
  0xf505f808f7f5f702U, 0xffef703fdea0803U, 0xf1e806fff80e0002U, 0xf8f2e1f4fdfc06f8U,
  0xf8fa81f6fef30203U, 0x108f7f8fdfb060bU, 0xfc07170f01f5fc00U, 0xfb0505091c0800e7U,
  0x401f9fff0f800ffU, 0xebfb0b06f5dffaf0U, 0xf20e060bf5fbd604U, 0x2ea0af6fa0619f4U,
  0x2af3d3d8fbfbe82aU, 0xaf4f1e200091e37U, 0x27b0d9e8d11b250bU, 0xde2ff7ead810152cU,
  0xeeee0fe1e60efb2fU, 0x2d15eaf1dcdcc6faU, 0xf27c20f07dc0e0dU, 0x255c603718f40200U,
  0xb5f226030506d9ebU, 0xf308f126f104142eU, 0xfce50d16edcc13e1U, 0x13e0210281fbf7dfU,
  0xc10625310f4e47f8U, 0x2ee10601223723e8U, 0xa22ce0eefc9f4ffU, 0x1f0034ef7a844e8U,
  0xffd8270303f8d602U, 0x630e0fccef5fe12U, 0xffeecf09e1ff0c01U, 0x1210e914f10ffeceU,
  0x100afe31f981250aU, 0x5061cebeff1f615U, 0xa05cddb03c80111U, 0xb0413bbf706f936U,
  0xe7150304efead301U, 0xf601f906ac01f4ffU, 0x10f4f3000c05fc05U, 0xfaf0fd0ae50426f9U,
  0xe60cf9e10b0110eeU, 0x10040a040b09fd10U, 0xfdf41af8de32fa05U, 0x901f104fe06fce3U,
  0xc7b1bce0fcfbbb0aU, 0x3504c656815405c9U, 0x6cb7ce09bc49fbb8U, 0x2640f911e44db65aU,
  0xa8f0f46eac69bc7U, 0xecddcdadb66115b1U, 0x39f21d41bd8e908U, 0x15f530019e1bebe3U,
  0xeddae9af1194a000U, 0x9170f1a10ec3614U, 0xea2cdb70f7c6dad9U, 0x26e8a3db0b00370aU,
  0xf4e4c345bef80709U, 0xcad7b90a160b0b96U, 0xe2dd1ea6140aee1dU, 0xc6fc1bfad617eae0U,
  0xe2dcbf05f6e8eedfU, 0x161bc7111f15ebedU, 0xe13fc7f601163a3cU, 0x7f2111e121d8f9a5U,
  0xe5cefe27f3ececf9U, 0xdefabb2603e42418U, 0xe7fb35b91ef1ebf6U, 0xafbfeeff7ebf62bU,
  0x20d0d0b1e42031aU, 0xef7d7fcaf15e0faU, 0x7619fe1d05daf110U, 0xfc191436e6dc35f9U,
  0xf5da1c1a1febce03U, 0x21d0d7210afdec13U, 0xdf114173e31f405U, 0xcf707efe7301506U,
  0xc10e0e2332140847U, 0xcbf3f407f8ffdbfdU, 0xd03f0fe4d62b01caU, 0xf2fcda310a13c1d3U,
  0xcf0e0ffede10153aU, 0xfdec0305e8c3b009U, 0xf38c4808f1f10f61U, 0xf50415f11de4cc04U,
  0xe634ef3b0aecfffbU, 0x8de1130fbd0d5d8U, 0x152c81fcedf206f5U, 0x55d2cefa12ffe1fdU,
  0x220123eadb0034caU, 0x15113fe90f0cea1eU, 0xb09bbcae2fdf1ebU, 0xe6f1000c23e50ad0U,
  0xf89af8001802c20bU, 0xfc5d150d8dfaf41eU, 0x390aed0cf8ce57d4U, 0x20c060800f5f50cU,
  0xb100a0103966bf1U, 0xd907eac80decb7f5U, 0xd9e70ffbdc0ff606U, 0x330d2398fc0b125fU,
  0x12108ffcd35f2f3U, 0xd211ebe9e605cee6U, 0xccee1247051ce908U, 0xf12019eebff92902U,
  0x181608df384e0d2cU, 0x6e4e338342216e8U, 0x2381f602fb230b09U, 0xd71321f52ce81df6U,
  0xe9c5e3da2c17d57cU, 0xd3170014bcfdde98U, 0xf82bd9dc101000ceU, 0x2f3f7f201dff3f8U,
  0xecaef9f7eecfb7ffU, 0xefcdbdc22ce0140bU, 0xe6f820000f0df5c7U, 0xf506e0070ddf1fc1U,
  0xfa6e0edaf9dbc903U, 0x1be1ff1af3e031acU, 0x7031713fcf0ed0bU, 0x3d19fd347ff22805U,
  0xde0b31890e094ed1U, 0xee0cc629d4ed25c7U, 0xd0f540bde23ceffU, 0xa81d3846baeb05f4U,
  0xf40401047ff4ff05U, 0xfdfb0cf2f2fef3e4U, 0x1bfef307000308fdU, 0xeefefb0502fcf8U,
  0x805fd101601f503U, 0xedef02e201f01518U, 0x4e704fc03f7f2fbU, 0xfdfefe0e080301edU,
  0xfe0602e7f2ededf8U, 0xdffed1108f2180fU, 0x9ef07ff09ee0addU, 0xdf8fdeff9faf8f5U,
  0x404f0fd0ef912feU, 0xd01dafefef707feU, 0xef30809fc06f5ecU, 0x4ed11fbf6f7fbf4U,
  0xecc8f9fb0507f715U, 0xf522e1d881f6edefU, 0x19be2f13f40e250fU, 0xfef613d2f2c2decdU,
  0x1ff913000fc71cedU, 0xecdcb8effcf100f5U, 0x12ccccf00614db03U, 0xbfe0a03dc07d504U,
  0xa08f4ee24290ad1U, 0xea02061101fbf5f4U, 0xf5fb040903feff0eU, 0xece6da1706ec2b0bU,
  0xe6fc14df0ff1f6edU, 0x107e812ff13fae2U, 0xe800150000da0001U, 0xf617f4f40b2bfa12U,
  0xd16fa0a12410310U, 0xfd1804fbfe17e410U, 0xfbdb0c0718eefd04U, 0x42f107fe1e080aU,
  0xfe0a4cfbea021611U, 0x1420ff14ee0ddfdeU, 0x33f5f008f8f306f6U, 0xe58608121c08f9fcU,
  0xe9e906060af90d01U, 0xf5f8ff0c03cbeb0fU, 0xd3e11107df0d0cf9U, 0xee0df30bf0ed0619U,
  0x18e7f10c1c18fcf7U, 0x10bf80e7f14020fU, 0x15fef7e915280403U, 0xe71316fffc3414U,
  0x24f1ec1b1c04f8e6U, 0xf4cff224fa043ffeU, 0xf81b232937ecd742U, 0x390a1efdfaeae819U,
  0x1cf3e3d43006f9feU, 0x40af53a080f08f7U, 0x22a1ee73a3df3feU, 0xf6fd0dd2190cf611U,
  0xf9cdf8fa12f63df8U, 0xeb2912f3080e13fbU, 0xed627ed147ff442U, 0xf21ec6422a08e414U,
  0xfe080d1608debdc9U, 0xd520fe0c1c1115f1U, 0x2e0ec00efb614f7U, 0xea0bf2ec19300128U,
  0x10c1410cf05dd1eU, 0x52eaeb1cfdbef301U, 0x19f6d7f8ffe9f9c9U, 0xdc1b02100b0a0306U,
  0x3d51038080ffa27U, 0xf90f0bbf02f12601U, 0xfdeb1313fad5c325U, 0xee29fd0a0a1feb0eU,
  0x71403060e01cdfaU, 0x41092c10c9f70724U, 0xf9ff12080e0911deU, 0xf4dce2017fe1f814U,
  0xf2080f1f16c570c6U, 0xe0e7271f0f1fdbf3U, 0xd0217e901d21a08U, 0xdcee144e97c4eaf8U,
  0xb6fc09f0056cc208U, 0xff10f7fd3381b804U, 0xeb17e1fb0c3ff601U, 0xdbd8031af1d113e9U,
  0xe5390ddfef13fc2eU, 0x508220d0ec9f80aU, 0x211ecaebe2e307f5U, 0xedeaef10caeb4124U,
  0x5f5d2da1f1e0ff7U, 0xbf0014008d9011eU, 0x26ec2dccdcedd2f8U, 0xfdecfd224804d213U,
  0xc9f7edf8b1e9f016U, 0x830e0da130e0628U, 0x2dfff3dffbeb06eaU, 0xaefdbe1e622fef1U,
  0xf3fd3c210213fc1eU, 0xee4020f438ad87e4U, 0x11d6eb06f428dc21U, 0xf022ff8122050cd1U,
  0xfae815e20a1c0209U, 0xd3003a0a5901f3feU, 0x19e20b1d1ff981d9U, 0x42c342ad4ef140eU,
  0x4ad820e2f51a0ff9U, 0xe8e8c90ff9c3c503U, 0xe8e516050299e127U, 0x25fdd6000cf223efU,
  0xfd00cafe1325071bU, 0x1ef61925f1fa0a53U, 0xeecac5ed33e61601U, 0xdbf5480eed023518U,
  0xef23841f211b7feU, 0xcf04fc1f2901dee2U, 0xfec301715f83a04U, 0xebe20df52812d0e8U,
  0x1bcff5f01d0efe1aU, 0xf8183f03080d32fcU, 0xf7f41923f7d11418U, 0xe500e2231211e00dU,
  0xe806f23f1617dd04U, 0x3a231f1507450153U, 0x161dfdfe2f17e32fU, 0x71203fabdf2e4f3U,
  0x39ef1e1c0ae97ff4U, 0xd9141a03e7ee2725U, 0x84b9a0534eee901U, 0xc91506d5c700f827U,
  0x1efed61ce7c2f4ecU, 0x1738064ef9b2e299U, 0x320e010c18f20543U, 0xec52815d11dfdaeU,
  0xf2bdd5500906e2f9U, 0xd8c81c2aea33d422U, 0xe4c56c2bee07b5c1U, 0xf502b6151011ecffU,
  0x2812ece2f5e7e9f9U, 0x3910e5d3cf13b3ecU, 0xf9374c671d34fa16U, 0x6f1e3eb38e22f1eU,
  0xe408bce48108d2cdU, 0x4ae502e408c7ea1dU, 0xffdbdc99dcc608f6U, 0x22ebed05e8dd22U,
  0xd031994ec250617U, 0x1cfee30016dc17fbU, 0xfe19e5f6f811dbeaU, 0x3ecea25fbea81dbU,
  0xede113d4170904b6U, 0xf9ff27d9ed03f36cU, 0xe707f411d2241a00U, 0x15fb07f6f0ef191bU,
  0xf7140427050e2c03U, 0xd9d42b1ce5e4152dU, 0xee21f2e8f737020cU, 0xf2001d5b55dbe8f4U,
  0x6f015f2e5f21012U, 0xe029ec15e203e80aU, 0xedd11dedd8e30af7U, 0xfee909322c1ff800U,
  0xfc0ee30524ea2e02U, 0xf803f2dbdfe0f6U, 0xbfbc90de918f824U, 0xc91606e4fe7f1e0aU,
  0xeb0e18f6f40b1217U, 0xc16fcdd11ec13feU, 0xfb0300c2ea12be08U, 0xa0731f0ef036d10U,
  0xfd3514f408d9ff0aU, 0x109e51c24132606U, 0x9fdf25391406d508U, 0xf9160be8da03f4efU,
  0xd9df21f60a1f2b26U, 0x15f40efafef60cdbU, 0x13f50f17f51e0511U, 0x130d16e8fed728c9U,
  0x5efeadef1ee0807U, 0x716f707ff0700deU, 0xf8000309fe080601U, 0x48107fdeafdf8fbU,
  0xff1ecd0f0e00f507U, 0x11e70ce4fcfd0cU, 0xdbfdf402f0f715feU, 0xababa127fc0a0301U,
  0x411c90701faf607U, 0x80f0ef2f502fe0dU, 0x11b1cfa08e6eb07U, 0x10fa100007f4fe03U,
  0x8e61906ba0517f7U, 0x9020efac8a5f3f1U, 0xcd04f701fb1d000aU, 0x15fff7f9fd08b9f4U,
  0xe3c3f5e00d3ddd1bU, 0x2c49b6d61812e504U, 0x2c020110d30606aeU, 0xee08e9acf1ef03fcU,
  0x10603f0ea14ce27U, 0x100e2b96d9d507faU, 0xdf8351725fe15f6U, 0x24f2f72c0402e412U,
  0xdc03fdea160fdbfaU, 0xed0614fed9f9fb0eU, 0xf236db0016811103U, 0x54f2f907d4daae01U,
  0xf8ed0224033dfe01U, 0x8f901fbdf34a4ffU, 0x210217e857d2c1fbU, 0xf8faf021e601eeb8U,
  0xde54f70a37f0b5e7U, 0x25d1d6fa19f6dcd0U, 0xff0f2103db06fbdfU, 0xff91afcffffe1ffU,
  0xf303f01ef11b6039U, 0x18104a34e41a3223U, 0x70c1b08b5026526U, 0xdbb9e2e000e5de2dU,
  0x7f4d0f060e1eefebU, 0x11e21df90dce127fU, 0xf19d9aeed610ebeaU, 0xbdea07431ddb0219U,
  0x31f827f2c6fc1e9fU, 0xf41e1eddcbf6ee38U, 0xe1f42020e1d4f5fbU, 0x4f0214f217f401d7U,
  0xc0fac5c4152d2aeeU, 0xed00003fff0f05e6U, 0xd90e071a010c1a24U, 0x424210fdac1e515U,
  0x7ff30eae4f80124U, 0x34fe09efeec020d9U, 0x2f4eff728d807ccU, 0x420c0c13bb1be802U,
  0xeed70af209f2dfecU, 0x41080e7f032f050cU, 0xf395fa1d0cf3e61fU, 0xeeddeb3105e8e6c3U,
  0xece803890f040b0bU, 0xf24ff6090af0fd00U, 0x341a03cc13e1f0e6U, 0xc40e2900e0140918U,
  0xc812d2838f40b20U, 0x51922ff9620db08U, 0x38f42b0c36dbfe9fU, 0xd2f80119e941f0cbU,
  0x5f8f9f70a1e39d9U, 0xf5fbecf9cc0a0edcU, 0x2e5f10f1e09efebU, 0x1008ef050426cba3U,
  0xd50b0ed3efec06f1U, 0x80df6e82c12d615U, 0x7706d8500937160aU, 0xee7d200fb2027f8U,
  0x12e32cf7fff2e30cU, 0xd7fd0afef50330c7U, 0xf29b742240bcc608U, 0xdcfecce2eef20e03U,
  0xf3fb1f220ef4fae8U, 0xe8f10918f509910bU, 0xeaffc3ff0a28dac7U, 0x709f7f522f8fffbU,
  0x8e004f3fe7503f9U, 0xe0f65405d7e0fcf2U, 0x20500f40e2322e7U, 0x70dffe2f5fb117fU,
  0x201a051cecf914ffU, 0xfd0af609f205fc07U, 0x23e7e9fefaf303U, 0xfa1dde0bdf0e0510U,
  0xc7fd041307ede00aU, 0xeeee070d0608aa38U, 0xace060205070afaU, 0xc04f813e1ef090aU,
  0x1b43fd3d13f7e42fU, 0xeaf9d9f411fe1133U, 0xbde505ff0be90a10U, 0x219528570e011cebU,
  0xeb0afd2514fe3fe1U, 0xa41f350926998107U, 0xee310ccaf4c7d825U, 0xc11a0912ebde2c18U,
  0x807ffb8f908d30bU, 0xc8c93bcc0206eff9U, 0xf63432fff8640c01U, 0xa315fdf8cee80f26U,
  0x22f0dde3bec7ed0bU, 0xfcd30ceaebefff50U, 0xdc00e6f61d280d0fU, 0x25fadddf4bfa10ddU,
  0x1ef11502d7ff401cU, 0x45fceee0f71e0916U, 0x643de1c21eb21ebU, 0xfee4f9ff2efe25edU,
  0x1b13040e26f8e802U, 0xd4eefce41809c820U, 0x107fc0106f4aa14U, 0xdff4dce6010007fbU,
  0xe124f9dd08080d06U, 0xb83af603f61a811fU, 0x58f7dc2bf514e6U, 0xe9e61df2a9e4e008U,
  0xee0b0d2206e2921fU, 0x1702ebdf110cfff2U, 0xf124a22512ae0603U, 0x210c380717efee28U,
  0xde6dde0fe10d205U, 0xcf7107fa1f2a104U, 0x5df53904fed80de5U, 0xc90936fcd759a828U,
  0xebccc3c303e4ffcaU, 0x4a1fb8edbbf80aeaU, 0xcdc0efed7c1becf1U, 0x241a21cb1660f6dbU,
  0xeedb0ceaf29a020dU, 0xe7fcee231504a634U, 0xf6f4ddc22ea90033U, 0x47efb2f868070f16U,
  0x2a0ac7f4e8e41f00U, 0xfa278d41e13cc8bcU, 0xec0dcdc0178dfa32U, 0xc20c0659f144cec5U,
  0xfa2f1661fd0550f7U, 0xd85c0ff8fef717edU, 0x1d6c01b054409efU, 0xf12701f6f6f807efU,
  0x1ec81c8128322899U, 0xba022a41193ccba6U, 0x38ef571a131942ddU, 0x124215d022be53fU,
  0xf1d30b57f011fbfdU, 0xdf2316fee9190f4aU, 0xd27cbb101f06ce3bU, 0xde3ebb1bf6d208edU,
  0xf402edf5224be3ecU, 0xeb0b1b37115a0c31U, 0x280cfd9dda1b210fU, 0x3f1ceb6b07e81a1aU,
  0xfe38470a0bd3f8a0U, 0xecbefbbedef3f12U, 0x6410b21dd1f001dU, 0xa802f3b4b8733507U,
  0xeb773c9e0631d025U, 0x1d121ee014cde4cdU, 0xba03d11604d325e7U, 0x1a1e0d0ab40e32faU,
  0xa1b25d70e196f60U, 0xe1d515c626f7f0b9U, 0xf5fbf2ce020bda60U, 0xf7e5020c413419fdU,
  0xdbd0b0ad3a1811eeU, 0x1e92bddf6fa0b10U, 0x29f92700997fd5f2U, 0x27e908ad3a0dc8d5U,
  0xf615fc201a2a2d02U, 0xeddcaf3e51db3f6U, 0xc8f91409f356e5f4U, 0xb230b07020cfc0cU,
  0xfae516c00a1124deU, 0xd7572017dbf6ef29U, 0x4031af8f23d28c4U, 0x191e21ce35f02f18U,
  0xdbde1d10fade3609U, 0x97f2fce41b0210efU, 0xfb2cd2fbf224292cU, 0x3539e922f6dfdcefU,
  0x260913ce2d81bdbfU, 0xe8092814f455c618U, 0x2e1f2dddace1409U, 0xd40aeb2332e91d00U,
  0xf61ae7f1e50e021dU, 0x16fc30f9181de2e5U, 0x2c130fff1915df0bU, 0xb50104eb05f7e015U,
  0x1cf506e528c0d0d8U, 0xe2c2be05f1ed2cd6U, 0x3e21901021ad2dfU, 0xfa040ee5151efaU,
  0x1bf80be00c8108ffU, 0x631040ffaf6d9f6U, 0x21061829fe090703U, 0xde22cced05f6deeeU,
  0x2100110b18ee0b0aU, 0xf700e2f6f6f613dcU, 0xffec1eff06e3f705U, 0xf40ffbfa0afe081bU,
  0xf702f1d7bff701f7U, 0x1e350c16d21df110U, 0x5d3ce62a47c40df8U, 0xf01242ef4710e9eeU,
  0xfe25330756a7f406U, 0xc4e1bf0df8bf7f02U, 0x12d744e710e3bdedU, 0x28fb1928d4080714U,
  0x727fdb6fcea0a1bU, 0x1a02d723f341250fU, 0xe71f031106f0e24bU, 0x51f1b527111522f3U,
  0xef17fd0bffc92e26U, 0x7e4ec1f0bf308bcU, 0x252e00e6ef27a73cU, 0xdc1aedf2e2fa09f2U,
  0xdbf31902123c24cdU, 0x15f80a0200c6ec01U, 0x4d61bf81ff7fa0fU, 0x6fa0b0d0b210cU,
  0x5f4b528fcf60326U, 0xdb171dde04ab1005U, 0xa0419099b17ddcaU, 0x240320f3f13405fdU,
  0x6de20f5df04fc0bU, 0xe0f8cc4ce6db07feU, 0x1dfe2235e4def40dU, 0x2626c509d62317f9U,
  0x47ff00ffdf1d9e9U, 0x77f34203c0ea0207U, 0xe7f520e0d6f8d81aU, 0xe10ad403f4ea111bU,
  0xf81d120be8f9fbf4U, 0xd3eefc1afaf5efU, 0xfa012afdd60f8121U, 0xfeff1418f910043dU,
  0xfaf810100851c501U, 0x1fd0af4070b0003U, 0xfdf804d207f6fc17U, 0x70e0711fc014ca3U,
  0x101905090edaff06U, 0xfefcf104cc01f615U, 0xec0b01f6ee000607U, 0xe0eef12f6fa08f3U,
  0xd0000ef201f40700U, 0xf0ed040b0509e717U, 0x2250af2f00beafdU, 0x90411fa130b0b22U,
  0xfbe439a2e628bfe9U, 0x50fa2119fd02d0deU, 0x32e90f0c13950914U, 0xf1eeeac32e128ae3U,
  0xf7ff05d60417cb92U, 0xfd033bc80f256eedU, 0xcbfe0150bdf0be2U, 0xfbf1bf06fa0e2819U,
  0xd57a01ad08eebb05U, 0xde0225e7ffe12df9U, 0x18e27ffbf32efb0eU, 0xfcffe20ad3980507U,
  0xa1505b3f0de979fU, 0xfef38aecc5d71021U, 0x2febd2d1951e3f6U, 0xe8d7ab6686fee307U,
  0x90a1004fc06f7edU, 0xe020402f97ffef0U, 0x8f502fcff02fdfbU, 0x4f9fbf413fc1408U,
  0x3f1f603fa00110fU, 0xf60bf209fe1a05faU, 0xfffd0f07f8fc0a14U, 0xf6fd0203090df1fcU,
  0xf810faf4fdfbfcffU, 0x1fe010af6091610U, 0xf8fe0aff010bd7fbU, 0xff06f8fef8f50afaU,
  0x2f8f5e400f81bfdU, 0xfff610030a06f406U, 0xaf900fafc01f305U, 0x1fe1902f8f4fcfdU,
  0xf62df408b8e90181U, 0xd8dadc1236ef11ddU, 0xf7c04205d1cafe4eU, 0x3dec38331bd49f14U,
  0xf32024c1fee0ebdeU, 0xe3111dd9e2f0f0feU, 0xddb6b8fb0edf2605U, 0x13dfd4eccc0ce2daU,
  0xb53de6cc1935f3efU, 0xf00ffaf10ffb4053U, 0x4d214b96eb16d8f0U, 0x1efbf427e214d0f1U,
  0x2be7ebe622fef556U, 0x28eaff05de0c1811U, 0xfd4010cd1ed2f323U, 0x590c4a1e4916feb4U,
  0xb91a2023e5022048U, 0xdde07b2e7fb81c8U, 0x3b0e0602f14e0d10U, 0xe5dc020f08da2243U,
  0x7fbedf2f706f445U, 0xf5fecacdfabc08d2U, 0x1724d314f3e02a07U, 0xe1f5fbcabcf81eefU,
  0xc1edf2c42bc7d2f5U, 0x6fac72a022d363eU, 0x16f809ad1bcaaf0fU, 0xdc13e81a5cd307ebU,
  0xdb1241d51af93fc0U, 0xd201d1022cfd1709U, 0xd7075623150bed03U, 0x16ed08df1ef911dcU,
  0xf6e7000607f4ef06U, 0xe20901f239f8f5f1U, 0x1fede507ec2d5c19U, 0xe06f7be08e1050bU,
  0xf904f9f50133ebf7U, 0xd7c3fbe8140f1fedU, 0x1f1f8dc1ef9adfdU, 0xd26f411e2f52655U,
  0xb7b90a210729eef2U, 0xfe8ecff0df1dfd1U, 0xe92f0c27f0ef3300U, 0xdd932fd0807f0U,
  0xcdf831e82123e6f6U, 0x19fbff0819160848U, 0xf326f8050b7f2401U, 0x22f9edfb0eec11c3U,
  0x10d6e31824ce36f1U, 0xf08fd64a7e8300aU, 0x11e9f109551ce33fU, 0x560b7a37dbecbc33U,
  0xd2c82824ee09e0ceU, 0xd7d3f2f5e45738e2U, 0x20b01d12fcc102b6U, 0x1226220504cb4b1cU,
  0x10804fd36c72213U, 0x11d3241ce7161df1U, 0xd80ecc00d21008edU, 0xddf5d7602ced100dU,
  0xb8220602aba7b905U, 0x39e9ccb6e8b529d3U, 0x1dcc3481d90cd91fU, 0xe9e309f9d371e9dfU,
  0xf0fd0509070005fcU, 0xc0205f6060407feU, 0x6fe028100fffe00U, 0xfd06fefbfdfefffbU,
  0xf4f90303f401f904U, 0x5fc02f701f909f9U, 0xffff04fcfff300fcU, 0x40300fd02fdfaffU,
  0x50501fcfb0003f9U, 0x3fbfffd01f80506U, 0xf7080701f8faf2ffU, 0x4ee01fe04f2fcecU,
  0x70006fd02000302U, 0xfefa03fa0209feffU, 0xfffc0404fffd07fbU, 0x4f107f900fc0002U,
  0x14cae809f30a1eeaU, 0xeaf3f2caffffe237U, 0xf73928fe7f01cc44U, 0x2fe84013010f2332U,
  0xea3bd11d0df7c1ecU, 0x23c4ffe7d2fbfadcU, 0x3b7e0ed353cff07U, 0xd9f6e3ccbb104c00U,
  0x1cef03e221f75ffbU, 0x2e0fdda46df0618U, 0xf4380efdf5f9ed04U, 0x9f3e60ff307f21bU,
  0x12f503eafbc4e541U, 0xd423c4080ff0eaf0U, 0xfbc2db250310d9f4U, 0xe208d016f75cf162U,
  0x31400000c5ceU, 0x11cffffff4ceU, 0xf38800002da2U, 0x60da000087ceU,
  0x788e00013ff7U, 0x2fdf00004250U, 0x2c930001098aU, 0xfffff4ee00004d79U,
  0x923efffffdc8U, 0xcac7ffff87a7U, 0x547c0000d75eU, 0xffff10a2ffffb185U,
  0x8664ffffc6e0U, 0xfffff47d00003457U, 0xffffc3030000bce9U, 0x1a11d00000151U,
  0xffff9a6c0000fd9fU, 0x1c00affff4b51U, 0xfd3b0000ea99U, 0x7c1affffd89aU,
  0x95950000b972U, 0xdfa3ffffb95cU, 0x176f1000163d1U, 0x16eb0000ae86U,
  0xc6dc00019170U, 0x6f6900005729U, 0x35a70000940aU, 0xb080000e2c9U,
  0x4e9a00000effU, 0x1ffe50001c7fcU, 0xacb00006557U, 0x977ffffb323U,
  0xc95bffff4d5aU, 0x4b10000043f6U, 0x62790000638dU, 0x20e900006304U,
  0x6b150000d9a9U, 0xc2690000138eU, 0x2c020000c9b3U, 0xffff5a2cffffbbf0U,
  0x1087d0000edc1U, 0x1b74f0000913bU, 0xe510000fbb1U, 0x44330001e0e3U,
  0xb0fb0001b90aU, 0x106b000085e2U, 0xdf800014be7U, 0x5d30001396fU,
  0x6f27000050ddU, 0xc484000082f1U, 0x38a200008c68U, 0x281d0000eab7U,
  0x160a200004d13U, 0xe02900001de3U, 0x80ffff3892U, 0xdeee00006e5eU,
  0xffff445f00019c31U, 0xffffbec1ffff65f8U, 0xbe380000e3f7U, 0x837fffffad2aU,
  0x1d30001c68eU, 0xe8e30001dad8U, 0xaa8800000f12U, 0x51ac00000f7aU,
  0x1400fa151413f81cU, 0xfd0b1f1902f10804U, 0x811b0fc3518efdaU, 0xa2ae0f9fd0ae31eU,
  0xa1508f7fae0aaf3U, 0xf617f4f10eed091bU, 0xb0f40e3ffbfb2106U, 0xcce9ff1c16f92804U,
  0x6920051eee0ce412U, 0xe40602fafd10fe0cU, 0x2807281db101cbfdU, 0xb4e3eefb4ef300fcU,
  0xfff2f105d7f504f2U, 0xaf91fcc080eff13U, 0xd1a2ec32a113121U, 0xf72beffc0407fbffU,
  0x22fcfc076e1efd7fU, 0x161b7f7fc44749f9U, 0xecee9e22d556e3dcU, 0x392d0708159c3eU,
  0xff0cffaaf881bf04U, 0x92f2f8f7fbd90a2cU, 0xf7ecee391bf20c7fU, 0xddd8f26d7ff17030U,
  0x39c3027f00099110U, 0xc507dcf9f83509eaU, 0x3de07ff90cebc0ebU, 0x81631ae81df50af9U,
  0x7fecd10ee4efff00U, 0x5f51ed4080ef42bU, 0x1ccad3297f173a23U, 0xccfaee43d3261e15U,
  0xff4fee11808241dU, 0x1b071e1101fae905U, 0xb0dacfddd0ef9d7U, 0x14174df917fede17U,
  0x140609fdfddd9a1eU, 0x427f0f70ff00a01U, 0xb40afc3601fe00faU, 0xd510fe200df81700U,
  0x5d2d071af00adc14U, 0xef08faf8000600edU, 0x350619023c01cb05U, 0xd38119f7dff405f9U,
  0xf8e7f603dbf403f7U, 0xfff91f370b0afd07U, 0x61deefc1521251aU, 0xf4f323f60307fdfdU,
  0x81f0a591022c208U, 0xc71105e7eae0ef5bU, 0x10fd9aa7f11e0f6U, 0x212981f556fdab3fU,
  0x3611fef9fc04be81U, 0x71befda0be0093fU, 0x81f01839ecf518fdU, 0x4c0f2a110ae3e6ecU,
  0x412509eee7172d0cU, 0xd51f23c80a12fe7fU, 0x90cfd7f8efd0efeU, 0xf2e7f9f87ff7ef11U,
  0xf7eee6050c0f02ebU, 0xde629d50b19f806U, 0x11057f7f3f205318U, 0xd15ff41ef1080e04U,
  0x813f813c7f7fb682U, 0x817f01a481207f7fU, 0x81817f7fca7f81d5U, 0x817ff4817f81817fU,
  0x7f7f7f7f7f1f8119U, 0x7f81817f817f7f7fU, 0xcdba7f7f7f7f7f15U, 0x71818181b57f757fU,
  0x7fa77ff17f7fa37fU, 0x817f81817f7f7fa8U, 0x7f81e6710881ba7fU, 0xde1a8181d47f7f7fU,
  0xd481dc7f7f817f81U, 0x7f7f7f45f47f817fU, 0x7f45aadd61597f6aU, 0x81fac27f7f81817fU,
  0x12811d810b137f0fU, 0x500c00e9f2d8904aU, 0xd13daadca00e703U, 0x2af75e036efdc018U,
  0x7605f7f7f5fdce57U, 0x21fe9e80fe00127U, 0x8e7f9a250dee07feU, 0xf652142510df01e4U,
  0x3324fce6e804170eU, 0xee0020b908fef4f6U, 0x1b10066a7fff0afaU, 0x46d34059cf0f6feU,
  0xf7eff2f90f10f6e1U, 0x3ec197f2213fc08U, 0xfdfd0dfa34f33d0cU, 0xd2817f17e90912f9U,
  0x901fa0f1512f1edU, 0x2080bfde1c0ff1bU, 0x4160ef52f16f1dfU, 0xb12f5ff2af9090eU,
  0x11020600001781e7U, 0xd1304f312f80731U, 0xe0ec0942f3f7f209U, 0x26ecfd11fdf9b301U,
  0x427f05ecf11737ffU, 0xdffefef7ff0f051aU, 0x1a06db29d2fc38f9U, 0xfafdf0f6fef806ebU,
  0x5021000fb2a09f9U, 0x2e91e032414fa06U, 0x641311427eb2bebU, 0xfd31eefdf80405fbU,
  0xf00fa013b3207e7U, 0x2004e0dde381fd00U, 0x91d392cca0ac381U, 0x70ae3042401bb2bU,
  0x613eed0f8699612U, 0x61bccca12ddf948U, 0xe901f621e4f42300U, 0x7feaf9fa15df81f1U,
  0x6770099f2277f07U, 0xbddbe41e11fffafcU, 0xeeaa8fb0bf47fc4U, 0x13bf25fde9ef06ebU,
  0xf6db7ffc037bff02U, 0x4e826257f11f200U, 0x87fe9df677f1b81U, 0xd6faf10400fd0b09U,
  0x2d102ea17151be5U, 0x2309fdfbe3d7f00aU, 0xa131203ed0ef5cfU, 0x1823080428f4f50bU,
  0x1916010303169802U, 0xe210cf60ff9132cU, 0xd310f73af2f3120aU, 0xbafc0a1003ffb1feU,
  0x2c6204fbf20f1ffbU, 0xf3050306f91605e5U, 0x21fbe82033fe2ff8U, 0xed0c2207f1fb09eaU,
  0x4011904012100feU, 0x5e214261b0efc01U, 0x83ce2f91e2910f5U, 0xfde71801f9ff0900U,
  0x60c1fffff87aU, 0xffffadc2fffff26aU, 0x2d8a0000a679U, 0x3c110000b8e5U,
  0xffffea11ffff5d47U, 0x609a0000a806U, 0xc6bafffffbeeU, 0x858200000170U,
  0x63f80000a800U, 0xfffffb6d00000e70U, 0x95cd000036d3U, 0x6af9000041c5U,
  0xaa93fffff00eU, 0xffff600900003af0U, 0x534a00009c88U, 0x44beffffd118U,
  0xf31500006103U, 0x54500008bd2U, 0xda8000010efU, 0xffff6999fffff405U,
  0xfffff353ffffe608U, 0x460e00005711U, 0x85710000033eU, 0x33710000315aU,
  0xffffc23affffc5ceU, 0xffffe71500001c8eU, 0x42e3ffffafb3U, 0xb1630000022aU,
  0x628b00002912U, 0xffffd54100002065U, 0x851600005f54U, 0x4f1400002d53U,
  0x814ffffffce0U, 0xb6fffffcbfbU, 0xffffca93fffffed9U, 0xfffffb4c0000326bU,
  0xffffd23dfffffe39U, 0xffffdb45ffffe439U, 0x35b800005d0eU, 0x15c88fffffd94U,
  0x3e47fffff833U, 0x724f0000497aU, 0x4b47ffff67d8U, 0xffffcbc70000623aU,
  0xffffd73fffffefa7U, 0x4c2d00001aefU, 0x665c000053f2U, 0x7a9000000c24U,
  0x129c000056e5U, 0xfffff33800004ff1U, 0x3f55fffff7f4U, 0x630000073eeU,
  0x533afffff9beU, 0xffffe9aaffffaa86U, 0xffffeed50000094aU, 0xffffd56300002d83U,
  0xffffcf4c00000087U, 0xfffff62efffff00bU, 0xcaeffffe964U, 0xffffb77dfffff6dcU,
  0x465afffff89cU, 0x186d00004525U, 0xffffe1f3ffffec14U, 0x8b5900003927U,
  0xfe1615ea0cebfff8U, 0x2a2648fbfe31f9f8U, 0xc80d18e8fdea2910U, 0xd6f8f317ff00fa35U,
  0xf2e22001185b08f0U, 0x262ff20fea07e211U, 0x34d0f40426d0d904U, 0xe20bfad3eafa07efU,
  0xd8051a1e21f17f1eU, 0xf91814283413eed1U, 0xf2c3ee112ecd9f1U, 0xe910082be0e1f8f7U,
  0xc619d00412eff1ffU, 0x37f8162dd7e9300aU, 0x281d0d261ca8e1feU, 0x20ee1924d1e1d90cU,
  0x1a11ff1afb207fffU, 0xa8f405eb0cec13e8U, 0xbfbf6fff5f2f2f4U, 0xfbfbf7fe0909010bU,
  0xa040cfeed1df6fdU, 0x57fb0be700f1e70bU, 0xf700fc12f6c4011cU, 0xad5f716f21f1ff9U,
  0xeace081321b4fe18U, 0x70642e60d17f00cU, 0x705c1fafa15fe0bU, 0xcf0204ecf708fdffU,
  0xeafaf0e309011502U, 0x151bfc05fcd7dfedU, 0x7340900fa11e0d8U, 0x6f203061f0af6f2U,
  0xe92fabf6f425ec30U, 0xed2f430721c810f1U, 0x232a048012428c2U, 0x1cc1ee70dbc08eaU,
  0x23ebfe36e27fc50cU, 0xb217f53dd492f0d8U, 0x19c819c61126c8a8U, 0xd0149bc321e41dafU,
  0x28c331e8e21849c1U, 0x72051bbae99e9ee9U, 0xf54fbd19f63e4718U, 0xac27f8962d0ea238U,
